{
  "00": 0,
  "01": 1,
  "02": 2,
  "03": 3,
  "04": 4,
  "05": 5,
  "06": 6,
  "07": 7,
  "08": 8,
  "09": 9,
  "0a": 10,
  "0b": 11,
  "0c": 12,
  "0d": 13,
  "0e": 14,
  "0f": 15,
  "10": 16,
  "11": 17,
  "12": 18,
  "13": 19,
  "14": 20,
  "15": 21,
  "16": 22,
  "17": 23,
  "18": 24,
  "19": 25,
  "1a": 26,
  "1b": 27,
  "1c": 28,
  "1d": 29,
  "1e": 30,
  "1f": 31,
  "20": 32,
  "21": 33,
  "22": 34,
  "23": 35,
  "24": 36,
  "25": 37,
  "26": 38,
  "27": 39,
  "28": 40,
  "29": 41,
  "2a": 42,
  "2b": 43,
  "2c": 44,
  "2d": 45,
  "2e": 46,
  "2f": 47,
  "30": 48,
  "31": 49,
  "32": 50,
  "33": 51,
  "34": 52,
  "35": 53,
  "36": 54,
  "37": 55,
  "38": 56,
  "39": 57,
  "3a": 58,
  "3b": 59,
  "3c": 60,
  "3d": 61,
  "3e": 62,
  "3f": 63,
  "40": 64,
  "41": 65,
  "42": 66,
  "43": 67,
  "44": 68,
  "45": 69,
  "46": 70,
  "47": 71,
  "48": 72,
  "49": 73,
  "4a": 74,
  "4b": 75,
  "4c": 76,
  "4d": 77,
  "4e": 78,
  "4f": 79,
  "50": 80,
  "51": 81,
  "52": 82,
  "53": 83,
  "54": 84,
  "55": 85,
  "56": 86,
  "57": 87,
  "58": 88,
  "59": 89,
  "5a": 90,
  "5b": 91,
  "5c": 92,
  "5d": 93,
  "5e": 94,
  "5f": 95,
  "60": 96,
  "61": 97,
  "62": 98,
  "63": 99,
  "64": 100,
  "65": 101,
  "66": 102,
  "67": 103,
  "68": 104,
  "69": 105,
  "6a": 106,
  "6b": 107,
  "6c": 108,
  "6d": 109,
  "6e": 110,
  "6f": 111,
  "70": 112,
  "71": 113,
  "72": 114,
  "73": 115,
  "74": 116,
  "75": 117,
  "76": 118,
  "77": 119,
  "78": 120,
  "79": 121,
  "7a": 122,
  "7b": 123,
  "7c": 124,
  "7d": 125,
  "7e": 126,
  "7f": 127,
  "80": 128,
  "81": 129,
  "82": 130,
  "83": 131,
  "84": 132,
  "85": 133,
  "86": 134,
  "87": 135,
  "88": 136,
  "89": 137,
  "8a": 138,
  "8b": 139,
  "8c": 140,
  "8d": 141,
  "8e": 142,
  "8f": 143,
  "90": 144,
  "91": 145,
  "92": 146,
  "93": 147,
  "94": 148,
  "95": 149,
  "96": 150,
  "97": 151,
  "98": 152,
  "99": 153,
  "9a": 154,
  "9b": 155,
  "9c": 156,
  "9d": 157,
  "9e": 158,
  "9f": 159,
  "a0": 160,
  "a1": 161,
  "a2": 162,
  "a3": 163,
  "a4": 164,
  "a5": 165,
  "a6": 166,
  "a7": 167,
  "a8": 168,
  "a9": 169,
  "aa": 170,
  "ab": 171,
  "ac": 172,
  "ad": 173,
  "ae": 174,
  "af": 175,
  "b0": 176,
  "b1": 177,
  "b2": 178,
  "b3": 179,
  "b4": 180,
  "b5": 181,
  "b6": 182,
  "b7": 183,
  "b8": 184,
  "b9": 185,
  "ba": 186,
  "bb": 187,
  "bc": 188,
  "bd": 189,
  "be": 190,
  "bf": 191,
  "c0": 192,
  "c1": 193,
  "c2": 194,
  "c3": 195,
  "c4": 196,
  "c5": 197,
  "c6": 198,
  "c7": 199,
  "c8": 200,
  "c9": 201,
  "ca": 202,
  "cb": 203,
  "cc": 204,
  "cd": 205,
  "ce": 206,
  "cf": 207,
  "d0": 208,
  "d1": 209,
  "d2": 210,
  "d3": 211,
  "d4": 212,
  "d5": 213,
  "d6": 214,
  "d7": 215,
  "d8": 216,
  "d9": 217,
  "da": 218,
  "db": 219,
  "dc": 220,
  "dd": 221,
  "de": 222,
  "df": 223,
  "e0": 224,
  "e1": 225,
  "e2": 226,
  "e3": 227,
  "e4": 228,
  "e5": 229,
  "e6": 230,
  "e7": 231,
  "e8": 232,
  "e9": 233,
  "ea": 234,
  "eb": 235,
  "ec": 236,
  "ed": 237,
  "ee": 238,
  "ef": 239,
  "f0": 240,
  "f1": 241,
  "f2": 242,
  "f3": 243,
  "f4": 244,
  "f5": 245,
  "f6": 246,
  "f7": 247,
  "f8": 248,
  "f9": 249,
  "fa": 250,
  "fb": 251,
  "fc": 252,
  "fd": 253,
  "fe": 254,
  "ff": 255,
  "2074": 256,
  "6865": 257,
  "2061": 258,
  "2073": 259,
  "2077": 260,
  "6e64": 261,
  "20746865": 262,
  "6564": 263,
  "2062": 264,
  "20746f": 265,
  "20616e64": 266,
  "2068": 267,
  "2066": 268,
  "696e": 269,
  "2054": 270,
  "207761": 271,
  "7265": 272,
  "6974": 273,
  "6f75": 274,
  "206c": 275,
  "2064": 276,
  "2063": 277,
  "2070": 278,
  "6179": 279,
  "206d": 280,
  "6572": 281,
  "20776173": 282,
  "6f6d": 283,
  "20546865": 284,
  "206865": 285,
  "6973": 286,
  "6172": 287,
  "206e": 288,
  "696d": 289,
  "6f6e": 290,
  "207361": 291,
  "6964": 292,
  "6c6c": 293,
  "206861": 294,
  "2067": 295,
  "6174": 296,
  "2053": 297,
  "696e67": 298,
  "6f74": 299,
  "656e": 300,
  "616e": 301,
  "6c65": 302,
  "6f72": 303,
  "6972": 304,
  "616d": 305,
  "6574": 306,
  "2048": 307,
  "206974": 308,
  "207468": 309,
  "6967": 310,
  "2054686579": 311,
  "20696e": 312,
  "696c": 313,
  "20706c": 314,
  "204865": 315,
  "2022": 316,
  "6f77": 317,
  "766572": 318,
  "7269": 319,
  "7574": 320,
  "206265": 321,
  "2075": 322,
  "2073616964": 323,
  "20706c6179": 324,
  "697468": 325,
  "20646179": 326,
  "2077697468": 327,
  "7070": 328,
  "4f6e": 329,
  "206f": 330,
  "2079": 331,
  "6f6f": 332,
  "6b6564": 333,
  "2072": 334,
  "20686572": 335,
  "6365": 336,
  "2049": 337,
  "20536865": 338,
  "6c64": 339,
  "2054696d": 340,
  "20686973": 341,
  "207374": 342,
  "6b65": 343,
  "2065": 344,
  "20626967": 345,
  "6e74": 346,
  "636b": 347,
  "20796f75": 348,
  "76657279": 349,
  "7374": 350,
  "7665": 351,
  "656e64": 352,
  "206f6e": 353,
  "756e": 354,
  "2068617070": 355,
  "7269656e64": 356,
  "20667269656e64": 357,
  "616c6c": 358,
  "696c79": 359,
  "204c": 360,
  "2074686579": 361,
  "207765": 362,
  "20686164": 363,
  "206e6f74": 364,
  "206c69": 365,
  "207570": 366,
  "686572": 367,
  "2077616e74": 368,
  "206f66": 369,
  "6164": 370,
  "697474": 371,
  "7365": 372,
  "2042": 373,
  "20646f": 374,
  "206861707079": 375,
  "656e74": 376,
  "2076657279": 377,
  "204d": 378,
  "6573": 379,
  "2074686174": 380,
  "20736177": 381,
  "4f6e65": 382,
  "2773": 383,
  "6f756c64": 384,
  "206d6f6d": 385,
  "20666f72": 386,
  "207368": 387,
  "6974746c65": 388,
  "206c6974746c65": 389,
  "20736f": 390,
  "20736865": 391,
  "6368": 392,
  "696d65": 393,
  "206e65": 394,
  "206e616d": 395,
  "2e22": 396,
  "2074696d65": 397,
  "206b": 398,
  "6f756e64": 399,
  "207468657265": 400,
  "206e616d6564": 401,
  "20736d": 402,
  "20626f": 403,
  "2077657265": 404,
  "204c696c79": 405,
  "2077616e746564": 406,
  "20627574": 407,
  "6f7574": 408,
  "546865": 409,
  "20667269656e6473": 410,
  "766564": 411,
  "2122": 412,
  "6874": 413,
  "20546f6d": 414,
  "697264": 415,
  "656c": 416,
  "2062697264": 417,
  "616c": 418,
  "20616e": 419,
  "616b65": 420,
  "20746f6f": 421,
  "6f6d65": 422,
  "204974": 423,
  "7567": 424,
  "696465": 425,
  "2077656e74": 426,
  "207768": 427,
  "2068656c": 428,
  "4f6e6365": 429,
  "206973": 430,
  "20616c6c": 431,
  "2068656c70": 432,
  "7565": 433,
  "206c6f6f": 434,
  "206c6f": 435,
  "746572": 436,
  "2041": 437,
  "2075706f6e": 438,
  "7279": 439,
  "6f7265": 440,
  "696e64": 441,
  "2066756e": 442,
  "676574": 443,
  "20746f79": 444,
  "696c6c": 445,
  "616d65": 446,
  "206173": 447,
  "206174": 448,
  "7261": 449,
  "206a": 450,
  "20646964": 451,
  "676574686572": 452,
  "207265": 453,
  "7572": 454,
  "207365": 455,
  "20746f676574686572": 456,
  "61636b": 457,
  "20636174": 458,
  "6c79": 459,
  "20747265": 460,
  "6f6f64": 461,
  "6963": 462,
  "746564": 463,
  "20646f67": 464,
  "20636f756c64": 465,
  "2063616e": 466,
  "207468656972": 467,
  "617264": 468,
  "6563": 469,
  "61726b": 470,
  "20676972": 471,
  "20706c61796564": 472,
  "2068696d": 473,
  "2062616c6c": 474,
  "3f22": 475,
  "206769726c": 476,
  "776179": 477,
  "20726f": 478,
  "20676f": 479,
  "686564": 480,
  "6d79": 481,
  "20617265": 482,
  "206f7574": 483,
  "206c65": 484,
  "206672": 485,
  "61696e": 486,
  "206b6e": 487,
  "68656e": 488,
  "207468656d": 489,
  "756d": 490,
  "2774": 491,
  "6178": 492,
  "20736164": 493,
  "756c": 494,
  "20626f79": 495,
  "2074726565": 496,
  "6f74686572": 497,
  "2068617665": 498,
  "206d616e": 499,
  "20636c": 500,
  "206c6f766564": 501,
  "206c6f6f6b6564": 502,
  "6f7567": 503,
  "20666f756e64": 504,
  "207370": 505,
  "2073746172": 506,
  "20537565": 507,
  "6f6e65": 508,
  "68696e67": 509,
  "207363": 510,
  "206261636b": 511,
  "6f776e": 512,
  "204d6178": 513,
  "617265": 514,
  "206c696b65": 515,
  "66756c": 516,
  "73696465": 517,
  "206d65": 518,
  "20626563": 519,
  "207061726b": 520,
  "69676874": 521,
  "6f6e67": 522,
  "20636172": 523,
  "6f70": 524,
  "656c74": 525,
  "204f6e65": 526,
  "206c696b6564": 527,
  "20776f756c64": 528,
  "206d616b65": 529,
  "726f756e64": 530,
  "206c61": 531,
  "206661": 532,
  "2066656c74": 533,
  "596f75": 534,
  "2057": 535,
  "656c6c": 536,
  "20736565": 537,
  "20427574": 538,
  "6f6d6574": 539,
  "2061736b6564": 540,
  "6167": 541,
  "206e6577": 542,
  "206e6f": 543,
  "696365": 544,
  "2053616d": 545,
  "6f757365": 546,
  "2073746172746564": 547,
  "61726564": 548,
  "2063616d65": 549,
  "2042656e": 550,
  "20616c": 551,
  "206f74686572": 552,
  "6f75676874": 553,
  "696c6564": 554,
  "20736f6d6574": 555,
  "206167": 556,
  "20676f6f64": 557,
  "20736d616c6c": 558,
  "7373": 559,
  "206272": 560,
  "20736d696c6564": 561,
  "20736179": 562,
  "72696564": 563,
  "616465": 564,
  "696e6773": 565,
  "6f62": 566,
  "706f74": 567,
  "20776f72": 568,
  "2066696e64": 569,
  "206578": 570,
  "6961": 571,
  "2061776179": 572,
  "7479": 573,
  "20707574": 574,
  "2077686174": 575,
  "20736f6d657468696e67": 576,
  "20636f": 577,
  "2066726f6d": 578,
  "206d616465": 579,
  "2074686f75676874": 580,
  "656e6564": 581,
  "20686f6d65": 582,
  "20706c6179696e67": 583,
  "6f6f6b": 584,
  "206576657279": 585,
  "2077616c": 586,
  "206d75": 587,
  "7563": 588,
  "616368": 589,
  "61726e": 590,
  "2053706f74": 591,
  "2072616e": 592,
  "696c65": 593,
  "2046": 594,
  "6965": 595,
  "204a": 596,
  "617665": 597,
  "20616761696e": 598,
  "20736f6d65": 599,
  "206c617567": 600,
  "6464": 601,
  "20686f757365": 602,
  "20646f776e": 603,
  "20666c": 604,
  "6b696e67": 605,
  "20746f6f6b": 606,
  "20736361726564": 607,
  "207072": 608,
  "6e79": 609,
  "757265": 610,
  "20746f7973": 611,
  "206c6561726e": 612,
  "20596f75": 613,
  "6966": 614,
  "2077696c6c": 615,
  "20626f78": 616,
  "69636b": 617,
  "726574": 618,
  "6162": 619,
  "6570": 620,
  "206d79": 621,
  "2061726f756e64": 622,
  "207468696e6773": 623,
  "20796f7572": 624,
  "6f7564": 625,
  "20626c": 626,
  "75636b": 627,
  "207768656e": 628,
  "697368": 629,
  "206c69766564": 630,
  "206665": 631,
  "207468656e": 632,
  "2073756e": 633,
  "6173": 634,
  "207377": 635,
  "2c22": 636,
  "206368": 637,
  "7573": 638,
  "70706564": 639,
  "206162": 640,
  "204d6961": 641,
  "616e6b": 642,
  "20676574": 643,
  "756379": 644,
  "54696d": 645,
  "756d70": 646,
  "5468": 647,
  "206c6f74": 648,
  "697374": 649,
  "6f7468": 650,
  "207472696564": 651,
  "6170": 652,
  "206b6e6f77": 653,
  "2073617973": 654,
  "20676f74": 655,
  "69746564": 656,
  "2077686f": 657,
  "206b6e65": 658,
  "757374": 659,
  "206d616e79": 660,
  "6e646572": 661,
  "20696e74": 662,
  "2061626f7574": 663,
  "4c696c79": 664,
  "2070726574": 665,
  "20646563": 666,
  "20616e79": 667,
  "20726564": 668,
  "2044": 669,
  "697665": 670,
  "206b6e6577": 671,
  "616365": 672,
  "6f7573": 673,
  "206d6f7265": 674,
  "697365": 675,
  "2063617265": 676,
  "616c6c79": 677,
  "20706963": 678,
  "6175": 679,
  "7175": 680,
  "20687567": 681,
  "204c756379": 682,
  "206c6561726e6564": 683,
  "20706f": 684,
  "207761746572": 685,
  "66746572": 686,
  "2076": 687,
  "20626563616d65": 688,
  "2062657374": 689,
  "61757365": 690,
  "206f70": 691,
  "20677265": 692,
  "20657863": 693,
  "757270": 694,
  "77617973": 695,
  "e280": 696,
  "206f757473696465": 697,
  "206c617567686564": 698,
  "206c6f6f6b": 699,
  "20616c77617973": 700,
  "206465636964": 701,
  "2073686f77": 702,
  "20756e": 703,
  "616e74": 704,
  "20426f62": 705,
  "20726f6f6d": 706,
  "6665": 707,
  "2064656369646564": 708,
  "20686f": 709,
  "2062656361757365": 710,
  "20536f": 711,
  "20696e746f": 712,
  "20656174": 713,
  "697465": 714,
  "206a756d70": 715,
  "20416e64": 716,
  "207065": 717,
  "20626f7468": 718,
  "657273": 719,
  "204d6f6d": 720,
  "20646164": 721,
  "54686579": 722,
  "756464": 723,
  "206b65": 724,
  "206f6e65": 725,
  "6e6e": 726,
  "2074686973": 727,
  "2065786369746564": 728,
  "2066617374": 729,
  "206e696365": 730,
  "2045": 731,
  "206665656c": 732,
  "546f6d": 733,
  "596573": 734,
  "2072756e": 735,
  "206c6f6e67": 736,
  "20746f6c64": 737,
  "20736b": 738,
  "20616d": 739,
  "75727072": 740,
  "6f7572": 741,
  "20696e73696465": 742,
  "756c6c": 743,
  "207472": 744,
  "207375727072": 745,
  "206d6f": 746,
  "696e6b": 747,
  "20707265747479": 748,
  "696e79": 749,
  "20736f72": 750,
  "5768": 751,
  "2074616b65": 752,
  "6f67": 753,
  "20736c": 754,
  "2065616368": 755,
  "2067617665": 756,
  "206d756368": 757,
  "20677261": 758,
  "6c6577": 759,
  "6e6e61": 760,
  "20726f636b": 761,
  "20686f77": 762,
  "20737472": 763,
  "617261": 764,
  "696d616c": 765,
  "20616e696d616c": 766,
  "676564": 767,
  "206e656564": 768,
  "207468616e": 769,
  "427574": 770,
  "76656e": 771,
  "6574746572": 772,
  "20746f77": 773,
  "206f72": 774,
  "2043": 775,
  "20756e646572": 776,
  "657373": 777,
  "206f6c64": 778,
  "20736f727279": 779,
  "6765": 780,
  "69736564": 781,
  "726f": 782,
  "757274": 783,
  "20636c65": 784,
  "2066697368": 785,
  "2077616c6b6564": 786,
  "20636c6f": 787,
  "616e64": 788,
  "2062656172": 789,
  "6674": 790,
  "617365": 791,
  "617374": 792,
  "2068616e64": 793,
  "75726e": 794,
  "205765": 795,
  "206b696e64": 796,
  "20486973": 797,
  "207465": 798,
  "68657265": 799,
  "2068617070656e6564": 800,
  "206a757374": 801,
  "20666c6f77": 802,
  "20666f6f64": 803,
  "206c697374": 804,
  "206469646e": 805,
  "20616e696d616c73": 806,
  "20686967": 807,
  "706c": 808,
  "206e656172": 809,
  "20776174": 810,
  "20696465": 811,
  "20747279": 812,
  "63686564": 813,
  "20736b79": 814,
  "696e65": 815,
  "20736e": 816,
  "76696e67": 817,
  "206669": 818,
  "726f6d": 819,
  "207573": 820,
  "2069646561": 821,
  "20626574746572": 822,
  "20416d79": 823,
  "20627567": 824,
  "206865617264": 825,
  "677279": 826,
  "20697473": 827,
  "207477": 828,
  "206c6574": 829,
  "706563": 830,
  "617465": 831,
  "61626c65": 832,
  "6666": 833,
  "20656e": 834,
  "206361726566756c": 835,
  "207368617265": 836,
  "6578": 837,
  "206966": 838,
  "5468616e6b": 839,
  "4d6f6d": 840,
  "20666c79": 841,
  "2073746f72": 842,
  "69616c": 843,
  "20666c6577": 844,
  "6d6f7265": 845,
  "20616e796d6f7265": 846,
  "205468": 847,
  "2073706563": 848,
  "207370656369616c": 849,
  "696f6e": 850,
  "20636f6d": 851,
  "206c6f7473": 852,
  "206e65766572": 853,
  "206279": 854,
  "6c66": 855,
  "7265616d": 856,
  "2064616e": 857,
  "206275": 858,
  "20666f": 859,
  "2077696e64": 860,
  "20646f6e": 861,
  "2074616c": 862,
  "20636c65616e": 863,
  "6f7274": 864,
  "206772": 865,
  "206c6f7665": 866,
  "726d": 867,
  "626572": 868,
  "20656e64": 869,
  "0a0a": 870,
  "205468656e": 871,
  "6f706c65": 872,
  "206576656e": 873,
  "206d6167": 874,
  "2068617264": 875,
  "207368696e79": 876,
  "756464656e": 877,
  "20666f7265": 878,
  "206f766572": 879,
  "2063616b65": 880,
  "616b": 881,
  "20626f6f6b": 882,
  "20636f6c": 883,
  "207475726e": 884,
  "2066616d": 885,
  "20626164": 886,
  "2073616665": 887,
  "206166746572": 888,
  "616479": 889,
  "20416e6e61": 890,
  "756464656e6c79": 891,
  "2070656f706c65": 892,
  "2070726f7564": 893,
  "204576657279": 894,
  "20737572707269736564": 895,
  "706563746564": 896,
  "4c6574": 897,
  "2068696768": 898,
  "206375": 899,
  "2068757274": 900,
  "20636f6d65": 901,
  "696d62": 902,
  "617264656e": 903,
  "20646f6f72": 904,
  "2067617264656e": 905,
  "6262": 906,
  "2067726f756e64": 907,
  "206f70656e6564": 908,
  "207069636b6564": 909,
  "206c6f7564": 910,
  "20636c696d62": 911,
  "6578706563746564": 912,
  "20756e6578706563746564": 913,
  "20676c": 914,
  "20636865": 915,
  "696c64": 916,
  "20696d": 917,
  "4173": 918,
  "2067697665": 919,
  "20776179": 920,
  "61696c": 921,
  "276d": 922,
  "207468616e6b6564": 923,
  "20636f6c6f72": 924,
  "20626c7565": 925,
  "207374696c6c": 926,
  "2065766572": 927,
  "20687567676564": 928,
  "2046726f6d": 929,
  "2063616c6c": 930,
  "20666172": 931,
  "6970": 932,
  "20486572": 933,
  "2053617261": 934,
  "205768656e": 935,
  "4e6f": 936,
  "206f6666": 937,
  "206d61676963": 938,
  "697a": 939,
  "6f756768": 940,
  "616765": 941,
  "756d6d79": 942,
  "204b": 943,
  "206a756d706564": 944,
  "2073686f756c64": 945,
  "2066616d696c79": 946,
  "20706172": 947,
  "6f6f6c": 948,
  "206b6964": 949,
  "20736d696c65": 950,
  "686573": 951,
  "756666": 952,
  "20706c616365": 953,
  "6b6179": 954,
  "2077616c6b": 955,
  "206e6f77": 956,
  "6374": 957,
  "20496e": 958,
  "206772656174": 959,
  "656d": 960,
  "74757265": 961,
  "207175": 962,
  "6c6573": 963,
  "207374726f6e67": 964,
  "2073746179": 965,
  "20756e74": 966,
  "2073746f": 967,
  "617574": 968,
  "20666f72657374": 969,
  "616e65": 970,
  "20627261": 971,
  "69747479": 972,
  "2050": 973,
  "2066726f67": 974,
  "2062726f": 975,
  "20756e74696c": 976,
  "6f6f6e": 977,
  "206265617574": 978,
  "6479": 979,
  "20737175": 980,
  "20737469636b": 981,
  "7874": 982,
  "206e657874": 983,
  "20626f6174": 984,
  "6c65617365": 985,
  "6e696e67": 986,
  "2068617070696c79": 987,
  "206c697374656e": 988,
  "616b696e67": 989,
  "206b696473": 990,
  "20747261": 991,
  "696573": 992,
  "6966756c": 993,
  "2062656175746966756c": 994,
  "20617070": 995,
  "7468": 996,
  "2068656c706564": 997,
  "20647261": 998,
  "2073686f776564": 999,
  "20636c6f73": 1000,
  "6265": 1001,
  "20696d70": 1002,
  "2073746f7279": 1003,
  "756e6e79": 1004,
  "6f79": 1005,
  "207768696c65": 1006,
  "20746f776e": 1007,
  "72656c": 1008,
  "7074": 1009,
  "207261696e": 1010,
  "72657373": 1011,
  "2070696374757265": 1012,
  "206265696e67": 1013,
  "2072656d": 1014,
  "2065766572796f6e65": 1015,
  "4974": 1016,
  "617279": 1017,
  "726565": 1018,
  "206d6f72": 1019,
  "20686174": 1020,
  "2063616c6c6564": 1021,
  "206d6574": 1022,
  "2073746f70706564": 1023,
  "206164": 1024,
  "2067616d65": 1025,
  "4e6f77": 1026,
  "4865": 1027,
  "43616e": 1028,
  "20616e677279": 1029,
  "676572": 1030,
  "75666679": 1031,
  "206f70656e": 1032,
  "20776f": 1033,
  "20747275636b": 1034,
  "206b656570": 1035,
  "20736f6674": 1036,
  "5768656e": 1037,
  "20637279": 1038,
  "2079756d6d79": 1039,
  "206c6f7374": 1040,
  "20626564": 1041,
  "204c6574": 1042,
  "2053616c6c79": 1043,
  "207761726d": 1044,
  "6279": 1045,
  "76656e74": 1046,
  "206272617665": 1047,
  "206d6f757365": 1048,
  "205768": 1049,
  "20617465": 1050,
  "204b69747479": 1051,
  "6973686564": 1052,
  "206465": 1053,
  "666f7265": 1054,
  "20646f6c6c": 1055,
  "736f": 1056,
  "20636f756c646e": 1057,
  "207761746368": 1058,
  "206c65617665": 1059,
  "20616c736f": 1060,
  "64646564": 1061,
  "2066656c6c": 1062,
  "20677265656e": 1063,
  "2066616365": 1064,
  "2074776f": 1065,
  "67616e": 1066,
  "697373": 1067,
  "20666c6f77657273": 1068,
  "626974": 1069,
  "57686174": 1070,
  "2052": 1071,
  "626c65": 1072,
  "206e6f697365": 1073,
  "6162626974": 1074,
  "69727374": 1075,
  "6f776c": 1076,
  "207768657265": 1077,
  "617a": 1078,
  "6f636b": 1079,
  "20736f6f6e": 1080,
  "73656c66": 1081,
  "20736c696465": 1082,
  "20726162626974": 1083,
  "20686f6c65": 1084,
  "6c75666679": 1085,
  "206265666f7265": 1086,
  "697272656c": 1087,
  "20707573": 1088,
  "69726564": 1089,
  "20736174": 1090,
  "696c6c79": 1091,
  "2068656172": 1092,
  "20757365": 1093,
  "e2809d": 1094,
  "4869": 1095,
  "207061": 1096,
  "206b657074": 1097,
  "e2809c": 1098,
  "54686174": 1099,
  "20737175697272656c": 1100,
  "656172": 1101,
  "5468656e": 1102,
  "6d61": 1103,
  "206e6f64646564": 1104,
  "206578706c": 1105,
  "2073746f7265": 1106,
  "20636f6f6b": 1107,
  "2068616e6473": 1108,
  "4c6f6f6b": 1109,
  "206269726473": 1110,
  "207061696e": 1111,
  "20676f696e67": 1112,
  "2066756e6e79": 1113,
  "20686176696e67": 1114,
  "646179": 1115,
  "2073696e67": 1116,
  "61796265": 1117,
  "756368": 1118,
  "206579": 1119,
  "617567": 1120,
  "206361746368": 1121,
  "6175676874": 1122,
  "2043616e": 1123,
  "20466c75666679": 1124,
  "756974": 1125,
  "2079656c6c": 1126,
  "207468696e6b": 1127,
  "6c656570": 1128,
  "20637261": 1129,
  "2066696e": 1130,
  "42656e": 1131,
  "20627265": 1132,
  "20666978": 1133,
  "207469726564": 1134,
  "2062756e6e79": 1135,
  "2075736564": 1136,
  "206c6f6f6b696e67": 1137,
  "20627573": 1138,
  "616e6765": 1139,
  "616972": 1140,
  "20776f726b": 1141,
  "207772": 1142,
  "206f7572": 1143,
  "2070756c6c": 1144,
  "5765": 1145,
  "20746872": 1146,
  "7468696e67": 1147,
  "204e6f77": 1148,
  "2077616974": 1149,
  "206b6974": 1150,
  "20736f756e64": 1151,
  "74696e67": 1152,
  "206a6f": 1153,
  "20686173": 1154,
  "2047": 1155,
  "206d65616e": 1156,
  "20706f6e64": 1157,
  "656d626572": 1158,
  "20626568": 1159,
  "206472": 1160,
  "2073756e6e79": 1161,
  "6c6564": 1162,
  "206f7468657273": 1163,
  "2061736b": 1164,
  "6e67": 1165,
  "6368656e": 1166,
  "206b69746368656e": 1167,
  "2074616c6b": 1168,
  "20666c6f": 1169,
  "20646966": 1170,
  "726577": 1171,
  "20706965": 1172,
  "204a6f": 1173,
  "2068656164": 1174,
  "207265616c": 1175,
  "206669727374": 1176,
  "20747269": 1177,
  "206d6f6d6d79": 1178,
  "2065796573": 1179,
  "656c6c6f": 1180,
  "20696d706f7274": 1181,
  "48656c6c6f": 1182,
  "20666176": 1183,
  "617468": 1184,
  "6a6f79": 1185,
  "207a": 1186,
  "2072656d656d626572": 1187,
  "207269676874": 1188,
  "20666c6f776572": 1189,
  "20636f6e": 1190,
  "206d657373": 1191,
  "207061727479": 1192,
  "20636f6c64": 1193,
  "20446f": 1194,
  "20766f": 1195,
  "20737765": 1196,
  "696f7573": 1197,
  "2073616e64": 1198,
  "20e2809c": 1199,
  "6163": 1200,
  "6f726e": 1201,
  "2072616365": 1202,
  "2063757269": 1203,
  "696d6573": 1204,
  "20696d706f7274616e74": 1205,
  "206475636b": 1206,
  "206d6f72616c": 1207,
  "20736861726564": 1208,
  "7a79": 1209,
  "6f756e74": 1210,
  "204a61636b": 1211,
  "20696365": 1212,
  "206f6b6179": 1213,
  "20616476656e74": 1214,
  "20776f726b6564": 1215,
  "6c6c6f77": 1216,
  "4174": 1217,
  "20656e6a6f79": 1218,
  "206472657373": 1219,
  "20627269676874": 1220,
  "206d616b696e67": 1221,
  "20637572696f7573": 1222,
  "206f776e": 1223,
  "2074616c6c": 1224,
  "20646972": 1225,
  "20686f70": 1226,
  "72656564": 1227,
  "20686964": 1228,
  "206661766f72": 1229,
  "207269": 1230,
  "686e": 1231,
  "20736c656570": 1232,
  "20646973": 1233,
  "576f77": 1234,
  "206661766f72697465": 1235,
  "207468696e67": 1236,
  "20626567616e": 1237,
  "206d6f6e": 1238,
  "20626167": 1239,
  "2068696c6c": 1240,
  "446f6e": 1241,
  "20636c61": 1242,
  "2064726177": 1243,
  "2072657374": 1244,
  "2068657265": 1245,
  "2079617264": 1246,
  "2074656c6c": 1247,
  "2046696e": 1248,
  "73746572": 1249,
  "2077617463686564": 1250,
  "717565": 1251,
  "20666f6c6c6f77": 1252,
  "206d6f7665": 1253,
  "2062656c": 1254,
  "656374": 1255,
  "20637574": 1256,
  "206e69676874": 1257,
  "20616772656564": 1258,
  "207069636b": 1259,
  "636f": 1260,
  "20626c6f636b": 1261,
  "2068756e": 1262,
  "61706572": 1263,
  "6c6c79": 1264,
  "2073746f70": 1265,
  "20626568696e64": 1266,
  "2054686973": 1267,
  "207375727072697365": 1268,
  "696564": 1269,
  "2073686f": 1270,
  "20686f74": 1271,
  "4166746572": 1272,
  "207461626c65": 1273,
  "206772617373": 1274,
  "20776f727279": 1275,
  "206461726b": 1276,
  "207472656573": 1277,
  "20766f696365": 1278,
  "2077616c6b696e67": 1279,
  "66657265": 1280,
  "20666c6f6f72": 1281,
  "206661726d": 1282,
  "206c696f6e": 1283,
  "20746f70": 1284,
  "2064696666657265": 1285,
  "20706c65617365": 1286,
  "207275": 1287,
  "20736f6e67": 1288,
  "20627574746572": 1289,
  "207461696c": 1290,
  "207377656574": 1291,
  "4d6178": 1292,
  "2073686f7574": 1293,
  "20636f6c6f7273": 1294,
  "2072656164": 1295,
  "20446164": 1296,
  "206c616479": 1297,
  "20666f7267": 1298,
  "697379": 1299,
  "206c6561766573": 1300,
  "20636c6f736572": 1301,
  "69676e": 1302,
  "2063617273": 1303,
  "207475726e6564": 1304,
  "206e6565646564": 1305,
  "2074617374": 1306,
  "576879": 1307,
  "6172696e67": 1308,
  "20776f6f64": 1309,
  "206372696564": 1310,
  "20646966666572656e74": 1311,
  "206c61756768": 1312,
  "2064656c": 1313,
  "207069656365": 1314,
  "e28099": 1315,
  "65726564": 1316,
  "204d72": 1317,
  "20726f6c6c": 1318,
  "20616476656e74757265": 1319,
  "2066697265": 1320,
  "20646f6573": 1321,
  "696b65": 1322,
  "206372": 1323,
  "2068756e677279": 1324,
  "2068616972": 1325,
  "2053756464656e6c79": 1326,
  "207061706572": 1327,
  "206665656c696e67": 1328,
  "2079656c6c6f77": 1329,
  "2066756c6c": 1330,
  "626f": 1331,
  "207072696e": 1332,
  "537565": 1333,
  "20746f756368": 1334,
  "204173": 1335,
  "416e6e61": 1336,
  "53616d": 1337,
  "20776574": 1338,
  "20667269656e646c79": 1339,
  "20706572": 1340,
  "6f6f6d": 1341,
  "6b656e": 1342,
  "636b6564": 1343,
  "6163686564": 1344,
  "207377696e67": 1345,
  "206672756974": 1346,
  "69656e74": 1347,
  "2062726f6b656e": 1348,
  "207265616479": 1349,
  "627965": 1350,
  "707079": 1351,
  "2070726f6d": 1352,
  "2054686174": 1353,
  "20616e6f74686572": 1354,
  "206c69676874": 1355,
  "2070726574656e64": 1356,
  "2064616e6365": 1357,
  "61746572": 1358,
  "20636c696d626564": 1359,
  "7768657265": 1360,
  "206c697374656e6564": 1361,
  "20426f626f": 1362,
  "2064616e63": 1363,
  "2072756e6e696e67": 1364,
  "206f6e6c79": 1365,
  "20706c616e": 1366,
  "20676f6e65": 1367,
  "207377696d": 1368,
  "62626564": 1369,
  "53756464656e6c79": 1370,
  "7368": 1371,
  "20747261696e": 1372,
  "696c61": 1373,
  "6e646d61": 1374,
  "53617261": 1375,
  "204a616e65": 1376,
  "20636c6f7365": 1377,
  "6176": 1378,
  "536865": 1379,
  "20736d656c6c": 1380,
  "536f": 1381,
  "616279": 1382,
  "20616d617a": 1383,
  "20686f6c64": 1384,
  "20626c6f636b73": 1385,
  "20776f6e646572": 1386,
  "2054696d6d79": 1387,
  "207265706c": 1388,
  "20416c6c": 1389,
  "2062757474657266": 1390,
  "2073656573": 1391,
  "2072656163686564": 1392,
  "2077616c6c": 1393,
  "207075": 1394,
  "6f6e6579": 1395,
  "726564": 1396,
  "20736c6f77": 1397,
  "2068656c70696e67": 1398,
  "20647269": 1399,
  "20637265616d": 1400,
  "20636f6f6c": 1401,
  "20676c6164": 1402,
  "6166": 1403,
  "20616e74": 1404,
  "206c657373": 1405,
  "206265656e": 1406,
  "20676f6f64627965": 1407,
  "206163": 1408,
  "206669676874": 1409,
  "6174686572": 1410,
  "4d6961": 1411,
  "20707573686564": 1412,
  "69636564": 1413,
  "2066616972": 1414,
  "206d757374": 1415,
  "2068696465": 1416,
  "206d6f6d656e74": 1417,
  "2077696e646f77": 1418,
  "204f": 1419,
  "20736974": 1420,
  "2062616c6c6f6f6e": 1421,
  "20736e6f77": 1422,
  "206368696c64": 1423,
  "206578706c6f7265": 1424,
  "2045766572796f6e65": 1425,
  "206172": 1426,
  "20776973686564": 1427,
  "2062616279": 1428,
  "20646f6e65": 1429,
  "20776167": 1430,
  "20737465": 1431,
  "20627579": 1432,
  "20737475636b": 1433,
  "2070657266": 1434,
  "207468616e6b": 1435,
  "206d69676874": 1436,
  "696379": 1437,
  "206e616d65": 1438,
  "697a6564": 1439,
  "20747279696e67": 1440,
  "20626974": 1441,
  "20636f6d696e67": 1442,
  "20626172": 1443,
  "20717569636b": 1444,
  "2066616c6c": 1445,
  "206170706c65": 1446,
  "617368": 1447,
  "207363617279": 1448,
  "206c6f6f6b73": 1449,
  "206275696c64": 1450,
  "20646f696e67": 1451,
  "2077696e": 1452,
  "20756e6465727374": 1453,
  "61697379": 1454,
  "2064696e": 1455,
  "20647265616d": 1456,
  "206469727479": 1457,
  "2068656c64": 1458,
  "616d6573": 1459,
  "20626f6f6b73": 1460,
  "206d6172": 1461,
  "496e": 1462,
  "20627574746572666c79": 1463,
  "206c656674": 1464,
  "2073686f75746564": 1465,
  "20636f756e74": 1466,
  "207265706c696564": 1467,
  "617679": 1468,
  "207265616368": 1469,
  "2074696e79": 1470,
  "207468726f756768": 1471,
  "6f7474": 1472,
  "2064726f": 1473,
  "20776879": 1474,
  "20616972": 1475,
  "206272616e": 1476,
  "206c616e64": 1477,
  "6b6579": 1478,
  "207468726565": 1479,
  "2070756c6c6564": 1480,
  "2073706c": 1481,
  "2067726f77": 1482,
  "207472656174": 1483,
  "2062726f74686572": 1484,
  "2077697365": 1485,
  "20776f6f6473": 1486,
  "2073757265": 1487,
  "277265": 1488,
  "206368616972": 1489,
  "6978": 1490,
  "206d6174": 1491,
  "696e73": 1492,
  "207365656e": 1493,
  "2070696e6b": 1494,
  "20636c6170706564": 1495,
  "20706c616e74": 1496,
  "656c79": 1497,
  "206f776c": 1498,
  "20637570": 1499,
  "69656c64": 1500,
  "20736f6d6574696d6573": 1501,
  "616e6479": 1502,
  "2066696c6c": 1503,
  "20636c6f7564": 1504,
  "61736b": 1505,
  "207377616d": 1506,
  "6f757468": 1507,
  "206a6f62": 1508,
  "20636f6c6f7266756c": 1509,
  "2072656d656d6265726564": 1510,
  "20626967676572": 1511,
  "206e657374": 1512,
  "206d6f757468": 1513,
  "7065": 1514,
  "4f6b6179": 1515,
  "206c6573736f6e": 1516,
  "206a6f696e": 1517,
  "20637265": 1518,
  "7068": 1519,
  "205468657265": 1520,
  "6f7570": 1521,
  "726f6f6d": 1522,
  "617274": 1523,
  "207761766564": 1524,
  "75646479": 1525,
  "2067726162626564": 1526,
  "20737461796564": 1527,
  "4f68": 1528,
  "207061696e74": 1529,
  "54686973": 1530,
  "20636c6f74": 1531,
  "20636f6e74": 1532,
  "20636c6f74686573": 1533,
  "207665": 1534,
  "6f776572": 1535,
  "204166746572": 1536,
  "20776169746564": 1537,
  "20717569636b6c79": 1538,
  "636c65": 1539,
  "20776f7264": 1540,
  "2062726f6b65": 1541,
  "75636b79": 1542,
  "2067616d6573": 1543,
  "2063617374": 1544,
  "20626c6577": 1545,
  "2067656e74": 1546,
  "204d6f6d6d79": 1547,
  "20656e6a6f796564": 1548,
  "206e6f7469636564": 1549,
  "4a6f": 1550,
  "72696573": 1551,
  "6174696f6e": 1552,
  "20736574": 1553,
  "206c696b6573": 1554,
  "207069637475726573": 1555,
  "746f6e": 1556,
  "6465": 1557,
  "20736561": 1558,
  "206865617679": 1559,
  "206d7573": 1560,
  "20616c6f6e65": 1561,
  "20676966": 1562,
  "6173757265": 1563,
  "20616e797468696e67": 1564,
  "2073706f74": 1565,
  "206d697373": 1566,
  "20686f70706564": 1567,
  "20776f726c64": 1568,
  "207475726e73": 1569,
  "6f726d": 1570,
  "2079656172": 1571,
  "646572": 1572,
  "20626f7474": 1573,
  "20706174": 1574,
  "20706f74": 1575,
  "2070656e": 1576,
  "6c63": 1577,
  "486572": 1578,
  "206d6978": 1579,
  "2061726d": 1580,
  "2062696b65": 1581,
  "207469676874": 1582,
  "2065766572797768657265": 1583,
  "20776f6e": 1584,
  "4c756379": 1585,
  "20746f776572": 1586,
  "207468726577": 1587,
  "2068696d73656c66": 1588,
  "20666f6c6c6f776564": 1589,
  "204275646479": 1590,
  "2072696465": 1591,
  "6d616e": 1592,
  "6c657373": 1593,
  "206a75": 1594,
  "206a65": 1595,
  "616d70": 1596,
  "426f62": 1597,
  "617065": 1598,
  "20636f6d70": 1599,
  "206b6579": 1600,
  "726f77": 1601,
  "222e": 1602,
  "207768697465": 1603,
  "63746f72": 1604,
  "2077726f6e67": 1605,
  "204461697379": 1606,
  "206d616b6573": 1607,
  "2057686174": 1608,
  "20627265616b": 1609,
  "20626c61636b": 1610,
  "6172656e74": 1611,
  "6565": 1612,
  "6e6572": 1613,
  "53706f74": 1614,
  "446f": 1615,
  "2064656570": 1616,
  "746879": 1617,
  "206d75736963": 1618,
  "20706f6c": 1619,
  "2064656c6963": 1620,
  "63657373": 1621,
  "756564": 1622,
  "20666f72676f74": 1623,
  "20626565": 1624,
  "20706172656e74": 1625,
  "20636173746c65": 1626,
  "766573": 1627,
  "6f6c6c79": 1628,
  "20656d": 1629,
  "696574": 1630,
  "2077656172": 1631,
  "20686974": 1632,
  "6973746572": 1633,
  "6f756e": 1634,
  "207175696574": 1635,
  "20726f756e64": 1636,
  "616e6365": 1637,
  "20737475": 1638,
  "2064616e636564": 1639,
  "20766973": 1640,
  "756c6c79": 1641,
  "2077616e7473": 1642,
  "206c656166": 1643,
  "206d6f6e73746572": 1644,
  "206e6170": 1645,
  "204a6f686e": 1646,
  "20756e6465727374616e64": 1647,
  "616e67": 1648,
  "20626f776c": 1649,
  "6f73": 1650,
  "726f74": 1651,
  "72656e": 1652,
  "20626f72": 1653,
  "2074616c6b6564": 1654,
  "697474656e": 1655,
  "20647279": 1656,
  "20666173746572": 1657,
  "20636f6f6b696573": 1658,
  "2062726f75676874": 1659,
  "66756c6c79": 1660,
  "206c6567": 1661,
  "726f7373": 1662,
  "206d756d": 1663,
  "7a7a": 1664,
  "2073696465": 1665,
  "7473": 1666,
  "46726f6d": 1667,
  "207369676e": 1668,
  "20496e73696465": 1669,
  "20736d617274": 1670,
  "6379": 1671,
  "20726f636b73": 1672,
  "20736f6d656f6e65": 1673,
  "486973": 1674,
  "20706f696e": 1675,
  "20736563": 1676,
  "2073686172696e67": 1677,
  "20666f78": 1678,
  "2077656c6c": 1679,
  "20726573": 1680,
  "2072656c": 1681,
  "2068617070656e": 1682,
  "20627574746f6e": 1683,
  "206272616e6368": 1684,
  "204c696c61": 1685,
  "207265616c6c79": 1686,
  "2066696e6973686564": 1687,
  "656e6365": 1688,
  "61726473": 1689,
  "2064696e6e6572": 1690,
  "20736973746572": 1691,
  "20666c79696e67": 1692,
  "65646479": 1693,
  "20636f6e74696e": 1694,
  "20776f7272696564": 1695,
  "20656c65": 1696,
  "20546f": 1697,
  "207669736974": 1698,
  "204d61796265": 1699,
  "206265616368": 1700,
  "20717565": 1701,
  "20736563726574": 1702,
  "20656c": 1703,
  "205361726168": 1704,
  "206b696e67": 1705,
  "4a6f686e": 1706,
  "6779": 1707,
  "20746f646179": 1708,
  "2070657266656374": 1709,
  "207269766572": 1710,
  "2065766572797468696e67": 1711,
  "2073696c6c79": 1712,
  "207368696e": 1713,
  "204a6f65": 1714,
  "2064616e676572": 1715,
  "697070": 1716,
  "206368696c6472656e": 1717,
  "206775": 1718,
  "20536f6f6e": 1719,
  "206669656c64": 1720,
  "2066696c6c6564": 1721,
  "20667572": 1722,
  "20656c7365": 1723,
  "20736d696c6573": 1724,
  "2077656c63": 1725,
  "204174": 1726,
  "2077697368": 1727,
  "20456d": 1728,
  "5768696c65": 1729,
  "2073616e67": 1730,
  "206769": 1731,
  "7a65": 1732,
  "2070756464": 1733,
  "20736e61636b": 1734,
  "20656174696e67": 1735,
  "207265616c697a6564": 1736,
  "20706965636573": 1737,
  "2070726f6d69736564": 1738,
  "6f7264": 1739,
  "20737072": 1740,
  "20706967": 1741,
  "2066726565": 1742,
  "20636f6e74696e756564": 1743,
  "2062697465": 1744,
  "656164": 1745,
  "20706172656e7473": 1746,
  "206361726566756c6c79": 1747,
  "61746564": 1748,
  "697474696e67": 1749,
  "20656172": 1750,
  "4a757374": 1751,
  "206a6172": 1752,
  "4d61796265": 1753,
  "20636f77": 1754,
  "416d79": 1755,
  "20626c616e6b": 1756,
  "2064726167": 1757,
  "7374656164": 1758,
  "206f72616e6765": 1759,
  "206d7564": 1760,
  "20637279696e67": 1761,
  "20626c616e6b6574": 1762,
  "20656e6f756768": 1763,
  "20726f6c6c6564": 1764,
  "636b6574": 1765,
  "20736f7570": 1766,
  "207361696c": 1767,
  "2070757270": 1768,
  "696d69": 1769,
  "20796573": 1770,
  "616c65": 1771,
  "206472696e6b": 1772,
  "20736e616b65": 1773,
  "736573": 1774,
  "20626f756e": 1775,
  "20706574": 1776,
  "2063726162": 1777,
  "207468726f77": 1778,
  "206c61756768696e67": 1779,
  "206661697279": 1780,
  "20776f726473": 1781,
  "20616d617a696e67": 1782,
  "2062617468": 1783,
  "696368": 1784,
  "20707572706c65": 1785,
  "205a": 1786,
  "20776974686f7574": 1787,
  "697265": 1788,
  "20626f74746c65": 1789,
  "2042696c6c79": 1790,
  "2067696674": 1791,
  "206772616e646d61": 1792,
  "46696e": 1793,
  "75736564": 1794,
  "6f6e73": 1795,
  "2070617374": 1796,
  "206d6f6e6579": 1797,
  "69766572": 1798,
  "666f7274": 1799,
  "206d61696c": 1800,
  "20477261": 1801,
  "206261726b6564": 1802,
  "20776167676564": 1803,
  "20617474": 1804,
  "63686f6f6c": 1805,
  "206d6f6e6b6579": 1806,
  "20646f63746f72": 1807,
  "756e6368": 1808,
  "2062726f776e": 1809,
  "206d6f766564": 1810,
  "69736573": 1811,
  "2061736b73": 1812,
  "2067657474696e67": 1813,
  "20636c6f736564": 1814,
  "20776865": 1815,
  "2077656c636f6d65": 1816,
  "207375": 1817,
  "2063616e6479": 1818,
  "207363686f6f6c": 1819,
  "206d6f726e696e67": 1820,
  "206f776e6572": 1821,
  "6767": 1822,
  "206c6f6e": 1823,
  "206d6f74686572": 1824,
  "20686967686572": 1825,
  "2073697474696e67": 1826,
  "207472656173757265": 1827,
  "2ee2809d": 1828,
  "20736d6f": 1829,
  "21e2809d": 1830,
  "2064616e6765726f7573": 1831,
  "206c6f6e656c79": 1832,
  "204368": 1833,
  "206c6976696e67": 1834,
  "206170706c6573": 1835,
  "757368": 1836,
  "2073686f70": 1837,
  "61736564": 1838,
  "20737472616e6765": 1839,
  "76656c": 1840,
  "207368696e696e67": 1841,
  "20726f6164": 1842,
  "657265": 1843,
  "20546f6d6d79": 1844,
  "206372656174": 1845,
  "756e61": 1846,
  "20706177": 1847,
  "207261": 1848,
  "6579": 1849,
  "2073686f6573": 1850,
  "20707265": 1851,
  "69626c65": 1852,
  "202d": 1853,
  "2073747265": 1854,
  "2074616c6b696e67": 1855,
  "616c746879": 1856,
  "20636175676874": 1857,
  "20656767": 1858,
  "6f6c": 1859,
  "2070617373": 1860,
  "6d65": 1861,
  "206c616b65": 1862,
  "2072756e73": 1863,
  "206275636b": 1864,
  "206c6574746572": 1865,
  "2077696e6773": 1866,
  "2063686565": 1867,
  "66697368": 1868,
  "206d6164": 1869,
  "2066616e": 1870,
  "61736b6574": 1871,
  "206261736b6574": 1872,
  "617373": 1873,
  "20647261676f6e": 1874,
  "617070": 1875,
  "4d6f6d6d79": 1876,
  "736574": 1877,
  "636b73": 1878,
  "2073746f6e65": 1879,
  "207468696e6b73": 1880,
  "207374616e64": 1881,
  "2064656c6963696f7573": 1882,
  "206e6f7365": 1883,
  "20707564646c65": 1884,
  "20746f6d": 1885,
  "20426c": 1886,
  "204d696d69": 1887,
  "2062656c6965": 1888,
  "206661726d6572": 1889,
  "2073616d65": 1890,
  "207965617273": 1891,
  "626f617264": 1892,
  "207465646479": 1893,
  "20626174": 1894,
  "69736b": 1895,
  "69746368": 1896,
  "206d696e65": 1897,
  "2073656172": 1898,
  "20636f6174": 1899,
  "63686573": 1900,
  "696768": 1901,
  "2064617973": 1902,
  "206272696e67": 1903,
  "2067656e746c65": 1904,
  "20666974": 1905,
  "207374617274": 1906,
  "2066696e616c6c79": 1907,
  "207768697374": 1908,
  "2063726179": 1909,
  "696767": 1910,
  "2073637265616d": 1911,
  "206b697465": 1912,
  "2070696c6c": 1913,
  "7068616e74": 1914,
  "61726d": 1915,
  "2076696c6c": 1916,
  "2063686f": 1917,
  "2073696e67696e67": 1918,
  "656c6c61": 1919,
  "7377": 1920,
  "696e6564": 1921,
  "207461737479": 1922,
  "207068": 1923,
  "2062656e": 1924,
  "2074726f75": 1925,
  "207368656c6c": 1926,
  "2068657273656c66": 1927,
  "20686f706564": 1928,
  "20616e7377": 1929,
  "20776f7265": 1930,
  "207377696e6773": 1931,
  "7379": 1932,
  "20686f72": 1933,
  "2062656c6f6e67": 1934,
  "506c65617365": 1935,
  "2070757368": 1936,
  "2062757368": 1937,
  "69736b657273": 1938,
  "20636172726f74": 1939,
  "2061727269": 1940,
  "617567687479": 1941,
  "207465616368": 1942,
  "626f77": 1943,
  "72616374": 1944,
  "206e617567687479": 1945,
  "20656c657068616e74": 1946,
  "2064726f70706564": 1947,
  "2073686170": 1948,
  "696572": 1949,
  "20636f6c6c": 1950,
  "7363": 1951,
  "2074656163": 1952,
  "656d79": 1953,
  "20776f6b65": 1954,
  "62616c6c": 1955,
  "2070696c65": 1956,
  "20686964696e67": 1957,
  "20636f7572": 1958,
  "697361": 1959,
  "65727279": 1960,
  "20746f7563": 1961,
  "206d696e": 1962,
  "207075707079": 1963,
  "276c6c": 1964,
  "207365656d": 1965,
  "6c6c6965": 1966,
  "207477696e73": 1967,
  "616d61": 1968,
  "206c756e6368": 1969,
  "20626f77": 1970,
  "207361636b": 1971,
  "2070657273": 1972,
  "20636f75727365": 1973,
  "2063686565726564": 1974,
  "20736861706573": 1975,
  "204a656e": 1976,
  "2067726577": 1977,
  "6675736564": 1978,
  "20726f7065": 1979,
  "2076696c6c616765": 1980,
  "69727468": 1981,
  "69727468646179": 1982,
  "206a75696365": 1983,
  "6970706564": 1984,
  "207261696e626f77": 1985,
  "207370696e": 1986,
  "4f4b": 1987,
  "2073686f6f6b": 1988,
  "4a61636b": 1989,
  "2073706f6f6e": 1990,
  "2062656e6368": 1991,
  "20737472656574": 1992,
  "2066656e6365": 1993,
  "2063757465": 1994,
  "2046726564": 1995,
  "20726f62": 1996,
  "206e7574": 1997,
  "20636865657365": 1998,
  "2070726f62": 1999,
  "20746f7563686564": 2000,
  "69646765": 2001,
  "636f6c": 2002,
  "206a6f79": 2003,
  "20576869736b657273": 2004,
  "2061727269766564": 2005,
  "2073656564": 2006,
  "20776172": 2007,
  "2074656163686572": 2008,
  "20636f726e": 2009,
  "476f6f64": 2010,
  "20666f7265766572": 2011,
  "2061626c65": 2012,
  "2062656c6c": 2013,
  "20666577": 2014,
  "206361727279": 2015,
  "206d6f7374": 2016,
  "20706c616e65": 2017,
  "20426c7565": 2018,
  "6c656d": 2019,
  "20656173": 2020,
  "20736f756e6473": 2021,
  "6c6c61": 2022,
  "20646573": 2023,
  "2073706f": 2024,
  "2070726f626c656d": 2025,
  "206269727468646179": 2026,
  "20706f776572": 2027,
  "20696e63": 2028,
  "756d62": 2029,
  "6272": 2030,
  "0a20": 2031,
  "2062756773": 2032,
  "696c6b": 2033,
  "20776f6e64657266756c": 2034,
  "20646f6c6c73": 2035,
  "2062757379": 2036,
  "61746f": 2037,
  "697270": 2038,
  "6562": 2039,
  "20777261": 2040,
  "2070726f6d697365": 2041,
  "205468616e6b": 2042,
  "206665656c73": 2043,
  "69616e": 2044,
  "20456d6d61": 2045,
  "65746572": 2046,
  "206272656164": 2047,
  "206e65636b": 2048,
  "46696e616c6c79": 2049,
  "206d696c6b": 2050,
  "20726f626f74": 2051,
  "20726563": 2052,
  "20736879": 2053,
  "6f756e7461696e": 2054,
  "206b697373": 2055,
  "697274": 2056,
  "206865617274": 2057,
  "2062616e64": 2058,
  "2063617665": 2059,
  "20706f636b6574": 2060,
  "7562": 2061,
  "2068656c7066756c": 2062,
  "676c79": 2063,
  "20736c6f776c79": 2064,
  "2062656c69657665": 2065,
  "207368616b65": 2066,
  "756d7079": 2067,
  "6561726564": 2068,
  "2070617469656e74": 2069,
  "20706f70": 2070,
  "206f62": 2071,
  "617270": 2072,
  "206c697665": 2073,
  "2073746f726d": 2074,
  "20686f6c64696e67": 2075,
  "2075676c79": 2076,
  "20746f7761726473": 2077,
  "207570736574": 2078,
  "2074757274": 2079,
  "20736872": 2080,
  "61646f77": 2081,
  "20636f766572": 2082,
  "206b697474656e": 2083,
  "6f7374": 2084,
  "2052656d79": 2085,
  "207368617270": 2086,
  "20646973617070": 2087,
  "2073746f72696573": 2088,
  "20737563": 2089,
  "20686f6e6579": 2090,
  "6f7665": 2091,
  "2042656c6c61": 2092,
  "72656164": 2093,
  "206e6f69736573": 2094,
  "204c65": 2095,
  "20636972": 2096,
  "2062616c6c73": 2097,
  "20737061726b": 2098,
  "2067726179": 2099,
  "2064697374": 2100,
  "2064697274": 2101,
  "6f676779": 2102,
  "206c617465": 2103,
  "20647269766572": 2104,
  "2073656174": 2105,
  "206275636b6574": 2106,
  "206d656574": 2107,
  "20796f756e67": 2108,
  "20616d617a6564": 2109,
  "20747572746c65": 2110,
  "616c6d": 2111,
  "2073706964": 2112,
  "20747265617473": 2113,
  "206d61676963616c": 2114,
  "756e74": 2115,
  "61746f72": 2116,
  "20676c6f77": 2117,
  "207365656b": 2118,
  "207a6f6f6d": 2119,
  "206c656d": 2120,
  "2073616e6477": 2121,
  "666f727461626c65": 2122,
  "756d626572": 2123,
  "2074726970": 2124,
  "206d697374": 2125,
  "6f75726e": 2126,
  "2073706c6173": 2127,
  "206d61726b": 2128,
  "206a6f75726e": 2129,
  "20666f6c64": 2130,
  "206d616368": 2131,
  "2070757a7a": 2132,
  "2070617274": 2133,
  "6c696e67": 2134,
  "20686f727365": 2135,
  "206f7267616e": 2136,
  "2077696c64": 2137,
  "207072696e63657373": 2138,
  "7070696e67": 2139,
  "6f6f7365": 2140,
  "20636f6f6b6965": 2141,
  "53757265": 2142,
  "656e73": 2143,
  "2068756773": 2144,
  "204d61726b": 2145,
  "2074616b696e67": 2146,
  "756e67": 2147,
  "20776865656c": 2148,
  "6570656e64": 2149,
  "20636c6f7468": 2150,
  "204c697361": 2151,
  "20737567": 2152,
  "20696e7374656164": 2153,
  "2062756262": 2154,
  "20737472696e67": 2155,
  "206e6574": 2156,
  "2064726f7665": 2157,
  "696c696e67": 2158,
  "2072756465": 2159,
  "2068756765": 2160,
  "204a696d": 2161,
  "20636f696e": 2162,
  "207374617273": 2163,
  "206669676874696e67": 2164,
  "4265": 2165,
  "207370696379": 2166,
  "206c75636b79": 2167,
  "4f66": 2168,
  "2063726177": 2169,
  "486579": 2170,
  "20626f6e65": 2171,
  "20696e76": 2172,
  "204772616e646d61": 2173,
  "6f7273": 2174,
  "6e6f74": 2175,
  "206361": 2176,
  "70706572": 2177,
  "20666f72676574": 2178,
  "7570": 2179,
  "206469": 2180,
  "617572": 2181,
  "2073616c": 2182,
  "2046696e616c6c79": 2183,
  "2063616e6e6f74": 2184,
  "2077686973746c65": 2185,
  "2063617264": 2186,
  "207369636b": 2187,
  "2070617468": 2188,
  "20636f75": 2189,
  "20737069646572": 2190,
  "2077696465": 2191,
  "4c696c61": 2192,
  "20666f6f74": 2193,
  "20736e6f776d616e": 2194,
  "20736f6e6773": 2195,
  "206c696665": 2196,
  "2070696c6c6f77": 2197,
  "697a65": 2198,
  "756c6172": 2199,
  "204a757374": 2200,
  "4c61746572": 2201,
  "657374": 2202,
  "20416e6e": 2203,
  "657274": 2204,
  "206669786564": 2205,
  "206769616e74": 2206,
  "6f7068": 2207,
  "72696c6c": 2208,
  "206e6f64": 2209,
  "20626f7373": 2210,
  "206c617374": 2211,
  "20636f6d6573": 2212,
  "206a6f6b65": 2213,
  "206d6f6f6e": 2214,
  "207461737465": 2215,
  "64656e": 2216,
  "206d616368696e65": 2217,
  "206772756d7079": 2218,
  "2077617665": 2219,
  "207468696e": 2220,
  "206472697665": 2221,
  "2063617274": 2222,
  "20617368": 2223,
  "20736572": 2224,
  "2067726162": 2225,
  "207065616365": 2226,
  "6c6f776572": 2227,
  "206461646479": 2228,
  "204f6e": 2229,
  "204c656f": 2230,
  "657279": 2231,
  "2073656c": 2232,
  "207368656c66": 2233,
  "2068696464656e": 2234,
  "6572657374": 2235,
  "2073756464656e6c79": 2236,
  "207761736e": 2237,
  "207772697465": 2238,
  "206c616e646564": 2239,
  "20636f6e6675736564": 2240,
  "2072696e67": 2241,
  "206368616e6765": 2242,
  "20776f726d": 2243,
  "20696e746572657374": 2244,
  "20636861736564": 2245,
  "6f6f70": 2246,
  "20667275697473": 2247,
  "20736f7572": 2248,
  "697479": 2249,
  "206d7973746572": 2250,
  "206261726b": 2251,
  "20726164": 2252,
  "20736d6f6f7468": 2253,
  "20436f6d65": 2254,
  "20616476656e7475726573": 2255,
  "2076616c": 2256,
  "2073746570706564": 2257,
  "20666c65": 2258,
  "6f7065": 2259,
  "206f76656e": 2260,
  "2074616b6573": 2261,
  "206d6973736564": 2262,
  "2073656c66697368": 2263,
  "6b696e": 2264,
  "207368656570": 2265,
  "206d65737379": 2266,
  "546f": 2267,
  "206163726f7373": 2268,
  "20656e74": 2269,
  "20657870": 2270,
  "746f": 2271,
  "206365": 2272,
  "206c61746572": 2273,
  "656c6c79": 2274,
  "204e": 2275,
  "696665": 2276,
  "20737469636b73": 2277,
  "20746965": 2278,
  "5374": 2279,
  "65766572": 2280,
  "204c756e61": 2281,
  "2073746570": 2282,
  "20626f75676874": 2283,
  "2064726577": 2284,
  "20746561": 2285,
  "70656374": 2286,
  "2062616e": 2287,
  "69727079": 2288,
  "626f78": 2289,
  "3fe2809d": 2290,
  "2077617368": 2291,
  "206c6179": 2292,
  "20706f7572": 2293,
  "206265616b": 2294,
  "6f7365": 2295,
  "206a6f67": 2296,
  "206772617465": 2297,
  "206475636b73": 2298,
  "20737065": 2299,
  "206c656773": 2300,
  "756767": 2301,
  "2066696c": 2302,
  "204275": 2303,
  "20656d70": 2304,
  "6d6572": 2305,
  "20686f7065": 2306,
  "20656d707479": 2307,
  "20736c6964": 2308,
  "2066656174686572": 2309,
  "20736c65657079": 2310,
  "206472756d": 2311,
  "616d6564": 2312,
  "617273": 2313,
  "657468": 2314,
  "207a6f6f": 2315,
  "2070616e": 2316,
  "2070686f6e65": 2317,
  "20677261746566756c": 2318,
  "2066696e67": 2319,
  "696f6e73": 2320,
  "206c656d6f6e": 2321,
  "6c6574": 2322,
  "20436174": 2323,
  "20636c65766572": 2324,
  "204d6f6c6c79": 2325,
  "20736d656c6c79": 2326,
  "20696d6167": 2327,
  "2073706c617368": 2328,
  "20696e746572657374696e67": 2329,
  "204a696c6c": 2330,
  "2073617665": 2331,
  "20636869636b": 2332,
  "2063616c6d": 2333,
  "206d6564": 2334,
  "207761746368696e67": 2335,
  "536f6f6e": 2336,
  "697a7a79": 2337,
  "697a7a": 2338,
  "20706c617465": 2339,
  "2069676e": 2340,
  "79617264": 2341,
  "20636c6f756473": 2342,
  "2062616e616e": 2343,
  "206c696e65": 2344,
  "206661636573": 2345,
  "206261": 2346,
  "20616374": 2347,
  "206c696674": 2348,
  "2074686f756768": 2349,
  "20776f6c66": 2350,
  "206261636b79617264": 2351,
  "77656c": 2352,
  "207365656d6564": 2353,
  "20646f6773": 2354,
  "207370726179": 2355,
  "436f6d65": 2356,
  "2070726f74": 2357,
  "2077686f6c65": 2358,
  "206d6f74": 2359,
  "2066616e6379": 2360,
  "204461646479": 2361,
  "207175657374": 2362,
  "2061726d73": 2363,
  "2070757a7a6c65": 2364,
  "206865616c746879": 2365,
  "2073757070": 2366,
  "77617264": 2367,
  "2066696e697368": 2368,
  "65726c79": 2369,
  "20616c6f6e67": 2370,
  "6c6c6f": 2371,
  "20726f636b6574": 2372,
  "206578706c61696e": 2373,
  "646765": 2374,
  "2065617379": 2375,
  "206a6577656c": 2376,
  "6f6e74": 2377,
  "207072616374": 2378,
  "206a656c6c79": 2379,
  "20436869727079": 2380,
  "20746964": 2381,
  "2066616b65": 2382,
  "20637261796f6e73": 2383,
  "20776f6e6465726564": 2384,
  "206d61796265": 2385,
  "2073636172": 2386,
  "2073686970": 2387,
  "206e6f7468696e67": 2388,
  "6f6e657374": 2389,
  "20656d62": 2390,
  "69676572": 2391,
  "20706f6f6c": 2392,
  "206c6f6e676572": 2393,
  "20616e796f6e65": 2394,
  "204265": 2395,
  "204a65727279": 2396,
  "75616c6c79": 2397,
  "2066726f6e74": 2398,
  "20776f726b696e67": 2399,
  "206769766573": 2400,
  "697272": 2401,
  "207061636b": 2402,
  "2073756368": 2403,
  "2042756e6e79": 2404,
  "6f636b6564": 2405,
  "6d656e74": 2406,
  "20626f737379": 2407,
  "20446f676779": 2408,
  "2074726f75626c65": 2409,
  "20736d656c6c6564": 2410,
  "207361766564": 2411,
  "2070696e": 2412,
  "72617373": 2413,
  "206e65696768": 2414,
  "617272617373": 2415,
  "6974696e67": 2416,
  "20686f6e657374": 2417,
  "206176": 2418,
  "61726765": 2419,
  "20656d62617272617373": 2420,
  "2076616e": 2421,
  "20666f7267697665": 2422,
  "2074696479": 2423,
  "207765616b": 2424,
  "75727365": 2425,
  "2070757473": 2426,
  "756e6b": 2427,
  "206b69636b": 2428,
  "207368697274": 2429,
  "2057697468": 2430,
  "206d696e64": 2431,
  "204f6c6c6965": 2432,
  "206e6569676862": 2433,
  "20706c616e7473": 2434,
  "20736f6c": 2435,
  "204d6f6d6f": 2436,
  "2067656e746c79": 2437,
  "20636f7a79": 2438,
  "6f72726f77": 2439,
  "6d696e67": 2440,
  "206578706c6f72": 2441,
  "7370": 2442,
  "206d697374616b65": 2443,
  "20796f67": 2444,
  "6f63": 2445,
  "6f6f6d79": 2446,
  "20706f696e746564": 2447,
  "206c6164": 2448,
  "206166": 2449,
  "2073746f6f64": 2450,
  "6f726b": 2451,
  "206f6e746f": 2452,
  "2077616974696e67": 2453,
  "206a756d70696e67": 2454,
  "207072696e6365": 2455,
  "2063726f7373": 2456,
  "206c6f636b": 2457,
  "206368656572": 2458,
  "20717565656e": 2459,
  "20576879": 2460,
  "204d617279": 2461,
  "2077696e67": 2462,
  "6f6e6573": 2463,
  "7765": 2464,
  "206c61726765": 2465,
  "206c6f76656c79": 2466,
  "756c74": 2467,
  "20737572": 2468,
  "20726574": 2469,
  "416e64": 2470,
  "2064656572": 2471,
  "2063686577": 2472,
  "20636f756368": 2473,
  "2062616c": 2474,
  "61756768746572": 2475,
  "207374726574": 2476,
  "657261": 2477,
  "205468656972": 2478,
  "20706c61636573": 2479,
  "204d79": 2480,
  "206c6164646572": 2481,
  "6f6f66": 2482,
  "2072657475726e": 2483,
  "72616964": 2484,
  "20616e7473": 2485,
  "2064697368": 2486,
  "20616672616964": 2487,
  "20636c65616e6564": 2488,
  "20746f6d6f72726f77": 2489,
  "206275696c64696e67": 2490,
  "2073616e6477696368": 2491,
  "20706572736f6e": 2492,
  "53616c6c79": 2493,
  "6e6564": 2494,
  "2070726574656e646564": 2495,
  "20626f756e6365": 2496,
  "20776970": 2497,
  "67657374": 2498,
  "206d61746368": 2499,
  "2072696368": 2500,
  "756365": 2501,
  "2070697a7a": 2502,
  "20676174686572": 2503,
  "20736561726368": 2504,
  "20626f72696e67": 2505,
  "6f6d616e": 2506,
  "20536f6d6574": 2507,
  "207465657468": 2508,
  "2068756d": 2509,
  "4b69747479": 2510,
  "4d79": 2511,
  "61636564": 2512,
  "206461756768746572": 2513,
  "20776f6d616e": 2514,
  "207363617266": 2515,
  "20676f6573": 2516,
  "20546f676574686572": 2517,
  "206c6177": 2518,
  "2073747261": 2519,
  "207377696d6d696e67": 2520,
  "206675727279": 2521,
  "2073706c6173686564": 2522,
  "20707269": 2523,
  "206c6f766573": 2524,
  "2074727565": 2525,
  "2073637265616d6564": 2526,
  "206c617a79": 2527,
  "2067656e": 2528,
  "20616e73776572": 2529,
  "206e756d626572": 2530,
  "20656167": 2531,
  "20617368616d6564": 2532,
  "2070697a7a61": 2533,
  "6177": 2534,
  "206170706561726564": 2535,
  "2066656172": 2536,
  "206e6561726279": 2537,
  "20706f77657266756c": 2538,
  "20666c6167": 2539,
  "205374": 2540,
  "2068616e67": 2541,
  "766f7573": 2542,
  "20636c6f776e": 2543,
  "656b": 2544,
  "206368617365": 2545,
  "206d6f746f72": 2546,
  "2077616e64": 2547,
  "205456": 2548,
  "20727562": 2549,
  "2073756363657373": 2550,
  "2063686f636f6c": 2551,
  "204966": 2552,
  "206372656174697665": 2553,
  "207472757374": 2554,
  "2077656172696e67": 2555,
  "206e6f697379": 2556,
  "206d6174746572": 2557,
  "7061": 2558,
  "20646967": 2559,
  "2068656c6c6f": 2560,
  "206e6572": 2561,
  "20746f6f6c": 2562,
  "20736166": 2563,
  "2042697264": 2564,
  "61646f": 2565,
  "206e6572766f7573": 2566,
  "656c70": 2567,
  "2074657374": 2568,
  "20736d696c696e67": 2569,
  "20736f6c64": 2570,
  "69636b6564": 2571,
  "6f707079": 2572,
  "6f73617572": 2573,
  "20636972636c65": 2574,
  "6d62": 2575,
  "206d6170": 2576,
  "206472616e6b": 2577,
  "20636c617373": 2578,
  "207472696573": 2579,
  "2063686f636f6c617465": 2580,
  "20506c65617365": 2581,
  "20696d7072657373": 2582,
  "206b6e6565": 2583,
  "2067656e6572": 2584,
  "2064696e6f73617572": 2585,
  "20706f6c697465": 2586,
  "206d697272": 2587,
  "20426f626279": 2588,
  "2054696e79": 2589,
  "2062616c6c6f6f6e73": 2590,
  "20676f6c64": 2591,
  "2072617265": 2592,
  "2070726f74656374": 2593,
  "2063616e64": 2594,
  "53746f70": 2595,
  "2063617272696564": 2596,
  "20476f": 2597,
  "656e73697665": 2598,
  "206170": 2599,
  "20736861646f77": 2600,
  "206d6972726f72": 2601,
  "20446f6e": 2602,
  "2062616c64": 2603,
  "2067756e": 2604,
  "696e61": 2605,
  "20657870656e73697665": 2606,
  "20726567": 2607,
  "696666": 2608,
  "206d7973746572696f7573": 2609,
  "205370": 2610,
  "2070756d70": 2611,
  "206e6f7465": 2612,
  "206865726f": 2613,
  "206d61726368": 2614,
  "20686172": 2615,
  "61726c": 2616,
  "20696379": 2617,
  "2072657370656374": 2618,
  "207765697264": 2619,
  "20736e6565": 2620,
  "20637269": 2621,
  "2067617465": 2622,
  "20736f6170": 2623,
  "726167": 2624,
  "757465": 2625,
  "6973736f7273": 2626,
  "207468657365": 2627,
  "20706f6f72": 2628,
  "20746f77656c": 2629,
  "207768616c65": 2630,
  "2066656574": 2631,
  "2074617065": 2632,
  "2064697a7a79": 2633,
  "6974746572": 2634,
  "2067656e65726f7573": 2635,
  "6e647061": 2636,
  "2070726573": 2637,
  "2042656e6e79": 2638,
  "6e6963": 2639,
  "20646973636f": 2640,
  "48656c70": 2641,
  "76656e7475616c6c79": 2642,
  "207069636e6963": 2643,
  "206d6963": 2644,
  "206c656164": 2645,
  "2073717565": 2646,
  "20656d626172726173736564": 2647,
  "206a6f75726e6579": 2648,
  "207375676172": 2649,
  "697370": 2650,
  "7363617065": 2651,
  "20626f6f74": 2652,
  "2074656e74": 2653,
  "20706561636566756c": 2654,
  "20666174": 2655,
  "2042656172": 2656,
  "2073636973736f7273": 2657,
  "20746173746564": 2658,
  "2079656c6c6564": 2659,
  "546f6d6d79": 2660,
  "207469636b": 2661,
  "206d656c": 2662,
  "206272757368": 2663,
  "2064616e63696e67": 2664,
  "6e657373": 2665,
  "20676c7565": 2666,
  "20687572": 2667,
  "20726f756768": 2668,
  "20636c6170": 2669,
  "20627269646765": 2670,
  "6f7465": 2671,
  "206465636f72": 2672,
  "20636c6f736574": 2673,
  "2063726f776e": 2674,
  "2073746972": 2675,
  "75616c": 2676,
  "696d70": 2677,
  "207072696e74": 2678,
  "20536f6d6574696d6573": 2679,
  "6f776564": 2680,
  "61697273": 2681,
  "20486f77": 2682,
  "756d65": 2683,
  "20636170": 2684,
  "206c616d70": 2685,
  "2076617365": 2686,
  "207363617265": 2687,
  "6c656272": 2688,
  "2072656c6965": 2689,
  "6c766573": 2690,
  "616e79": 2691,
  "20656c64": 2692,
  "2074656c65": 2693,
  "2063656c656272": 2694,
  "2067696767": 2695,
  "207768697370": 2696,
  "206c6f67": 2697,
  "2073636f": 2698,
  "20626c6f77": 2699,
  "207061696e746564": 2700,
  "204475636b79": 2701,
  "20706179": 2702,
  "657272696573": 2703,
  "20776973": 2704,
  "2062657272696573": 2705,
  "206d69786564": 2706,
  "20737072656164": 2707,
  "20776f756c646e": 2708,
  "2063616765": 2709,
  "2062616b65": 2710,
  "726f62": 2711,
  "67657461626c65": 2712,
  "206d6f756e7461696e": 2713,
  "2061646d": 2714,
  "2064726177696e67": 2715,
  "206265636f6d65": 2716,
  "2066616d6f7573": 2717,
  "206b6e6f636b6564": 2718,
  "206265616e": 2719,
  "206e6f726d": 2720,
  "20766567657461626c65": 2721,
  "617370": 2722,
  "206b69636b6564": 2723,
  "75737472": 2724,
  "20736861726b": 2725,
  "736572": 2726,
  "20696e63726564": 2727,
  "206c6f7365": 2728,
  "206e6f726d616c": 2729,
  "2077726170": 2730,
  "636564": 2731,
  "2067726f7570": 2732,
  "20746869636b": 2733,
  "2033": 2734,
  "2066696e65": 2735,
  "20676c617373": 2736,
  "2069676e6f72": 2737,
  "20636c6f636b": 2738,
  "207465616d": 2739,
  "20656c6465726c79": 2740,
  "20636c656172": 2741,
  "20636f726e6572": 2742,
  "20667275737472": 2743,
  "206d6967687479": 2744,
  "726f6265": 2745,
  "20636f6e65": 2746,
  "20696e6372656469626c65": 2747,
  "204272": 2748,
  "6967686564": 2749,
  "446164": 2750,
  "206d6f6d73": 2751,
  "2062616c616e6365": 2752,
  "20736f636b": 2753,
  "207370616365": 2754,
  "206a616d": 2755,
  "726167696c65": 2756,
  "20667269676874": 2757,
  "206f7267616e697a6564": 2758,
  "206272616e63686573": 2759,
  "20726f6172": 2760,
  "706f7274": 2761,
  "2073776f7264": 2762,
  "616c6f7573": 2763,
  "204d616d61": 2764,
  "206775657373": 2765,
  "20666f6f6c": 2766,
  "2073656c6c": 2767,
  "2066656564": 2768,
  "20536f6d65": 2769,
  "207768696368": 2770,
  "20686f726e": 2771,
  "2070726573656e74": 2772,
  "206a65616c6f7573": 2773,
  "207961726e": 2774,
  "6f6e79": 2775,
  "2066726167696c65": 2776,
  "206275726e": 2777,
  "20756e64657273746f6f64": 2778,
  "206d6973": 2779,
  "207374756262": 2780,
  "20746572": 2781,
  "2066727573747261746564": 2782,
  "5768657265": 2783,
  "726179": 2784,
  "20686f7365": 2785,
  "6369656e74": 2786,
  "207370656e74": 2787,
  "2073686f65": 2788,
  "20746175676874": 2789,
  "2073747562626f726e": 2790,
  "207477697374": 2791,
  "206372656174757265": 2792,
  "206368657374": 2793,
  "2073706f696c6564": 2794,
  "2072656c6965766564": 2795,
  "20616e6369656e74": 2796,
  "69717565": 2797,
  "2077616b65": 2798,
  "2066696572": 2799,
  "2070726179": 2800,
  "20666965726365": 2801,
  "2065676773": 2802,
  "20636162": 2803,
  "207465727269": 2804,
  "206261726e": 2805,
  "2070756d706b696e": 2806,
  "20636f6d666f727461626c65": 2807,
  "206f7264": 2808,
  "796d": 2809,
  "20667269676874656e6564": 2810,
  "6f727279": 2811,
  "20746f7567": 2812,
  "20756e69717565": 2813,
  "206d656173757265": 2814,
  "20676f6174": 2815,
  "207761676f6e": 2816,
  "20756e7573": 2817,
  "20627265617468": 2818,
  "20666f6f6c697368": 2819,
  "2075736566756c": 2820,
  "206578706c6f72696e67": 2821,
  "646c65": 2822,
  "207374726177": 2823,
  "20756e757375616c": 2824,
  "20647567": 2825,
  "20636c6179": 2826,
  "20646973636f766572": 2827,
  "20746f6d61746f": 2828,
  "205065": 2829,
  "2064656164": 2830,
  "2066696e64696e67": 2831,
  "20706f6c696365": 2832,
  "2077726f7465": 2833,
  "20636c756d": 2834,
  "206578616d": 2835,
  "6c616365": 2836,
  "207761766573": 2837,
  "20737175617265": 2838,
  "206865617273": 2839,
  "20636162696e": 2840,
  "2074656c6c73": 2841,
  "206e65636b6c616365": 2842,
  "2064756c6c": 2843,
  "20636c756d7379": 2844,
  "20746f756768": 2845,
  "20627562626c6573": 2846,
  "206e6f7379": 2847,
  "6b6e": 2848,
  "207365617263686564": 2849,
  "546f676574686572": 2850,
  "20776173686564": 2851,
  "2062617468726f6f6d": 2852,
  "2070617773": 2853,
  "626279": 2854,
  "6f6e64": 2855,
  "756e6e": 2856,
  "616e676564": 2857,
  "20626f617264": 2858,
  "666963": 2859,
  "6b6e6f776e": 2860,
  "2061736b696e67": 2861,
  "206372617a79": 2862,
  "207468616e6b66756c": 2863,
  "2073756e66": 2864,
  "20626974746572": 2865,
  "79616c": 2866,
  "20706972": 2867,
  "6265727279": 2868,
  "616c6b": 2869,
  "20696e64": 2870,
  "20646966666963": 2871,
  "20726f7365": 2872,
  "63696c": 2873,
  "207377616e": 2874,
  "20626c6f6f6d": 2875,
  "20756e6b6e6f776e": 2876,
  "20456c6c61": 2877,
  "20636f7665726564": 2878,
  "20646966666963756c74": 2879,
  "20616464": 2880,
  "2070656e63696c": 2881,
  "2066696e676572": 2882,
  "2068616d": 2883,
  "20686f6f70": 2884,
  "206a6574": 2885,
  "207769746368": 2886,
  "2064726f70": 2887,
  "4d65": 2888,
  "2027": 2889,
  "20636869636b656e": 2890,
  "20676c6f6f6d79": 2891,
  "6170706564": 2892,
  "206c6f79616c": 2893,
  "616c73": 2894,
  "48657265": 2895,
  "207765616c746879": 2896,
  "636f6d": 2897,
  "6c69676874": 2898,
  "20756e6c": 2899,
  "2063617473": 2900,
  "20656e64696e67": 2901,
  "2067756974": 2902,
  "626c6564": 2903,
  "7368696e65": 2904,
  "20646f7665": 2905,
  "206a6f696e6564": 2906,
  "2063686572": 2907,
  "616e7574": 2908,
  "206d6f76": 2909,
  "207465727269626c65": 2910,
  "20796f757273": 2911,
  "69616e74": 2912,
  "2055": 2913,
  "20526578": 2914,
  "2073616c6164": 2915,
  "20416e6479": 2916,
  "206e757473": 2917,
  "20726174": 2918,
  "67726f756e64": 2919,
  "207469676572": 2920,
  "20706f7461746f": 2921,
  "206d61736b": 2922,
  "7869626c65": 2923,
  "73656c766573": 2924,
  "2076616c7565": 2925,
  "206368616e676564": 2926,
  "206d6f76696e67": 2927,
  "206578636974696e67": 2928,
  "6f726d6f7573": 2929,
  "204d616e79": 2930,
  "20626f6479": 2931,
  "205472": 2932,
  "20746f617374": 2933,
  "207265636f7264": 2934,
  "657270": 2935,
  "207a6970": 2936,
  "2064697367": 2937,
  "206368656170": 2938,
  "20677569746172": 2939,
  "6972737479": 2940,
  "206b6e6f77696e67": 2941,
  "20616476656e747572": 2942,
  "20796f757273656c66": 2943,
  "20656e6f726d6f7573": 2944,
  "206861697279": 2945,
  "4576657279": 2946,
  "2073686f6f74": 2947,
  "2042726f776e": 2948,
  "20626f726564": 2949,
  "20706570706572": 2950,
  "2072656d696e64": 2951,
  "6f7279": 2952,
  "6c616e64": 2953,
  "2061636f726e": 2954,
  "20616476656e7475726f7573": 2955,
  "2073756e7368696e65": 2956,
  "20736d616c6c6572": 2957,
  "207374756666": 2958,
  "2068617473": 2959,
  "20736f6c7665": 2960,
  "204a696d6d79": 2961,
  "20666c657869626c65": 2962,
  "20636f7374": 2963,
  "72696c6c69616e74": 2964,
  "206b6e696665": 2965,
  "20706572666f726d": 2966,
  "20736e61636b73": 2967,
  "206e6f6473": 2968,
  "2073686f7265": 2969,
  "206272696c6c69616e74": 2970,
  "2074686972737479": 2971,
  "2064656c6963617465": 2972,
  "2066726f776e": 2973,
  "2064697367757374": 2974,
  "20636f6c6c656374": 2975,
  "2073747269": 2976,
  "207365656473": 2977,
  "20636f756e746564": 2978,
  "2061736c656570": 2979,
  "2062616e616e61": 2980,
  "7265656e": 2981,
  "206d61696c626f78": 2982,
  "696e657373": 2983,
  "20646f756768": 2984,
  "20747269636b": 2985,
  "206e65696768626f72": 2986,
  "756e676c65": 2987,
  "206865616c": 2988,
  "6c697665": 2989,
  "57686f": 2990,
  "207374616765": 2991,
  "6964656e74": 2992,
  "206d61726b6574": 2993,
  "2063756265": 2994,
  "2073746174": 2995,
  "206a756e676c65": 2996,
  "207371756565": 2997,
  "6d627265": 2998,
  "206578706c61696e6564": 2999,
  "61746573": 3000,
  "20756d627265": 3001,
  "2064697367757374696e67": 3002,
  "4a696d": 3003,
  "66746564": 3004,
  "206c6162": 3005,
  "206a6f6c6c79": 3006,
  "20666c617368": 3007,
  "756e64": 3008,
  "20667269646765": 3009,
  "696e616c": 3010,
  "706964": 3011,
  "696c74": 3012,
  "206372616e65": 3013,
  "636f726e": 3014,
  "2073756974": 3015,
  "207268": 3016,
  "6964646c65": 3017,
  "2073756e666c6f776572": 3018,
  "2074696d6573": 3019,
  "20416c": 3020,
  "657270696c6c": 3021,
  "20636174657270696c6c": 3022,
  "2072656c6178": 3023,
  "20736869766572": 3024,
  "20666f7572": 3025,
  "2069736c616e64": 3026,
  "6967696e616c": 3027,
  "206861726d": 3028,
  "696374": 3029,
  "205768696c65": 3030,
  "79696e67": 3031,
  "20737475706964": 3032,
  "206d65646963": 3033,
  "20496e7374656164": 3034,
  "20636f6d62": 3035,
  "20676f6f7365": 3036,
  "2063726f": 3037,
  "656469656e74": 3038,
  "2057696c6c": 3039,
  "2073746f7665": 3040,
  "4966": 3041,
  "417265": 3042,
  "20696e646570656e64": 3043,
  "4d756d": 3044,
  "6d6f7374": 3045,
  "20737072696e67": 3046,
  "2067656d": 3047,
  "20626174746572": 3048,
  "20736967686564": 3049,
  "20766567657461626c6573": 3050,
  "2073746f6e6573": 3051,
  "706573": 3052,
  "207368696e65": 3053,
  "486f77": 3054,
  "206d65646963696e65": 3055,
  "20646570656e64": 3056,
  "20727567": 3057,
  "20596f7572": 3058,
  "20636172656c657373": 3059,
  "206f726967696e616c": 3060,
  "207374616d70": 3061,
  "20676172": 3062,
  "206372696573": 3063,
  "496e73696465": 3064,
  "6775": 3065,
  "20636172726f7473": 3066,
  "20736372": 3067,
  "207375636365737366756c": 3068,
  "207361756365": 3069,
  "206a656570": 3070,
  "20706f70636f726e": 3071,
  "206d65616c": 3072,
  "206f62656469656e74": 3073,
  "20616c6d6f7374": 3074,
  "206d6964646c65": 3075,
  "206d61676e": 3076,
  "207374756479": 3077,
  "20696e646570656e64656e74": 3078,
  "206665617266756c": 3079,
  "206a61636b": 3080,
  "6d6574": 3081,
  "696e6b79": 3082,
  "536f727279": 3083,
  "2053616d6d79": 3084,
  "20657363617065": 3085,
  "20636174657270696c6c6172": 3086,
  "20736572696f7573": 3087,
  "207065616e7574": 3088,
  "20626564726f6f6d": 3089,
  "206561676572": 3090,
  "616b656e": 3091,
  "2067657473": 3092,
  "20706172726f74": 3093,
  "20737461747565": 3094,
  "2068656c6d6574": 3095,
  "2070656262": 3096,
  "204e6f": 3097,
  "20666f756e7461696e": 3098,
  "20726176656e": 3099,
  "20616e67": 3100,
  "207061737461": 3101,
  "20756d6272656c6c61": 3102,
  "20636f6d706574": 3103,
  "5468657265": 3104,
  "206a61636b6574": 3105,
  "2062656c6f6e676564": 3106,
  "2064657374": 3107,
  "2066696c746879": 3108,
  "2064657369676e": 3109,
  "20626f72726f77": 3110,
  "2063616d": 3111,
  "657261626c65": 3112,
  "20686f75736573": 3113,
  "207072697a65": 3114,
  "20686179": 3115,
  "206272616365": 3116,
  "207374616e64696e67": 3117,
  "206d6973657261626c65": 3118,
  "207261636564": 3119,
  "2074616b656e": 3120,
  "61676573": 3121,
  "20666f726b": 3122,
  "20637261796f6e": 3123,
  "207061696e74696e67": 3124,
  "696f": 3125,
  "20747269616e67": 3126,
  "20696d7072657373697665": 3127,
  "2063686f6f7365": 3128,
  "20666967": 3129,
  "2074696564": 3130,
  "6961626c65": 3131,
  "2073706f74746564": 3132,
  "206c6966746564": 3133,
  "20736c6970706564": 3134,
  "6f757273": 3135,
  "2074616e6b": 3136,
  "2074686f7567687466756c": 3137,
  "20646570656e6461626c65": 3138,
  "20737465616c": 3139,
  "20676172616765": 3140,
  "656e6e79": 3141,
  "206275696c74": 3142,
  "206d757368": 3143,
  "206572": 3144,
  "697065": 3145,
  "206d6f6c65": 3146,
  "20637261776c6564": 3147,
  "207363616c65": 3148,
  "20626f617473": 3149,
  "207069616e": 3150,
  "2070616e74": 3151,
  "2068616d6d6572": 3152,
  "20626f74746f6d": 3153,
  "6c7068": 3154,
  "20636865657266756c": 3155,
  "207573696e67": 3156,
  "20736d6f6b65": 3157,
  "207069636b73": 3158,
  "206d6f646572": 3159,
  "62657272696573": 3160,
  "2073686f7773": 3161,
  "726e": 3162,
  "207069616e6f": 3163,
  "206d61676e6574": 3164,
  "64696c65": 3165,
  "636f64696c65": 3166,
  "206875727473": 3167,
  "696e617279": 3168,
  "20726566": 3169,
  "20637261636b": 3170,
  "20656e67": 3171,
  "2061756e74": 3172,
  "206d656c6f6e": 3173,
  "2077616666": 3174,
  "206d6f6465726e": 3175,
  "20646f6c7068": 3176,
  "756e6e656c": 3177,
  "637265616d": 3178,
  "7061636b": 3179,
  "2074756e6e656c": 3180,
  "6f696e": 3181,
  "206172726f77": 3182,
  "2072656c6961626c65": 3183,
  "20686f7070696e67": 3184,
  "206d757368726f6f6d": 3185,
  "206a7567": 3186,
  "54696d6d79": 3187,
  "20737175617368": 3188,
  "2067756d": 3189,
  "2073696e6b": 3190,
  "206d6f766965": 3191,
  "20746178": 3192,
  "20666c757465": 3193,
  "2062656574": 3194,
  "206c65616e": 3195,
  "5468656972": 3196,
  "6976": 3197,
  "20706f70756c6172": 3198,
  "6f70746572": 3199,
  "69636f70746572": 3200,
  "206372797374": 3201,
  "206f6e6573": 3202,
  "2073696c": 3203,
  "20636f6d7065746974": 3204,
  "2068656c69636f70746572": 3205,
  "61736572": 3206,
  "206e65656473": 3207,
  "69706f70": 3208,
  "6c6c69706f70": 3209,
  "2063726f636f64696c65": 3210,
  "206c697a": 3211,
  "4d6f6c6c79": 3212,
  "207072657373": 3213,
  "2074726f75626c6564": 3214,
  "2070696765": 3215,
  "206c6f636b6564": 3216,
  "20747269636b73": 3217,
  "206c6f6c6c69706f70": 3218,
  "20706c617966756c": 3219,
  "2068756d626c65": 3220,
  "2074617869": 3221,
  "206b6973736564": 3222,
  "206c6f77": 3223,
  "61707079": 3224,
  "636f6d666f727461626c65": 3225,
  "616d6f6e64": 3226,
  "20756e636f6d666f727461626c65": 3227,
  "20726964": 3228,
  "686f7374": 3229,
  "2077616e646572": 3230,
  "61746368": 3231,
  "20616e67656c": 3232,
  "656479": 3233,
  "636c6573": 3234,
  "20746f726e": 3235,
  "206772616365": 3236,
  "20616e78": 3237,
  "2077726170706564": 3238,
  "206d756666": 3239,
  "2074776967": 3240,
  "2070616e7473": 3241,
  "206469736170706f696e": 3242,
  "20536e": 3243,
  "2068656c7073": 3244,
  "206469616d6f6e64": 3245,
  "2063616d657261": 3246,
  "6174746572": 3247,
  "6f746f": 3248,
  "20616e78696f7573": 3249,
  "2067686f7374": 3250,
  "207465617273": 3251,
  "207275696e6564": 3252,
  "636964656e74": 3253,
  "204a656e6e79": 3254,
  "696c7479": 3255,
  "2071756172": 3256,
  "616666": 3257,
  "204576656e": 3258,
  "20666973": 3259,
  "6f706c": 3260,
  "2062656c74": 3261,
  "65726f706c": 3262,
  "20656e76": 3263,
  "206775696c7479": 3264,
  "2062756c6c": 3265,
  "206165726f706c": 3266,
  "2068656c706c657373": 3267,
  "2068617070696e657373": 3268,
  "206c697a617264": 3269,
  "20626f7973": 3270,
  "637574": 3271,
  "657874": 3272,
  "2063657265": 3273,
  "2077616c6b73": 3274,
  "6365616e": 3275,
  "20706173736564": 3276,
  "206d65616e74": 3277,
  "206f6365616e": 3278,
  "20666c75666679": 3279,
  "2077697265": 3280,
  "206e61696c": 3281,
  "2062726163656c6574": 3282,
  "2064656166": 3283,
  "7a6564": 3284,
  "2073747265746368": 3285,
  "2063616e646c65": 3286,
  "2063616374": 3287,
  "7474": 3288,
  "20626565746c65": 3289,
  "206d6f70": 3290,
  "206861726d6c657373": 3291,
  "756d706574": 3292,
  "206f7264696e617279": 3293,
  "20616e737765726564": 3294,
  "20636f6c6c6172": 3295,
  "20636f70": 3296,
  "2062656573": 3297,
  "2074697265": 3298,
  "207368617065": 3299,
  "207175617272656c": 3300,
  "20726164696f": 3301,
  "20666c6173686c69676874": 3302,
  "206372797374616c": 3303,
  "20686172646572": 3304,
  "20706f75726564": 3305,
  "207472756d706574": 3306,
  "20656e67696e65": 3307,
  "4d616d61": 3308,
  "2070657273697374": 3309,
  "2068756e74": 3310,
  "20746f6f7468": 3311,
  "2063657265616c": 3312,
  "20696e7669746564": 3313,
  "20636f6d707574": 3314,
  "20746167": 3315,
  "206f6666696365": 3316,
  "206d656c74": 3317,
  "207370696c6c": 3318,
  "20636861726d": 3319,
  "636f61": 3320,
  "206c6974": 3321,
  "2073636f6f74": 3322,
  "20636f6d6574": 3323,
  "20747269616e676c65": 3324,
  "696566": 3325,
  "206d7567": 3326,
  "20726570": 3327,
  "756265": 3328,
  "20796f67757274": 3329,
  "207370656e64": 3330,
  "20636f6d70617373": 3331,
  "206163636964656e74": 3332,
  "207368616465": 3333,
  "68657474": 3334,
  "616768657474": 3335,
  "61676865747469": 3336,
  "206469736170706f696e746564": 3337,
  "206c69636b6564": 3338,
  "20636163747573": 3339,
  "2070616c65": 3340,
  "2063757368": 3341,
  "20666967757265": 3342,
  "20726567756c6172": 3343,
  "20676976696e67": 3344,
  "2061766f63": 3345,
  "2070726f": 3346,
  "207368656574": 3347,
  "20776869737065726564": 3348,
  "617a65": 3349,
  "757468": 3350,
  "656c6c6967": 3351,
  "20637265617465": 3352,
  "20626172626572": 3353,
  "20696e74656c6c6967": 3354,
  "2070697065": 3355,
  "20726f6465": 3356,
  "20726f6f66": 3357,
  "4a616e65": 3358,
  "20746872656164": 3359,
  "6974686572": 3360,
  "207669": 3361,
  "206c6f6164": 3362,
  "206c696272": 3363,
  "20676966746564": 3364,
  "63636f6c": 3365,
  "20707261637469636564": 3366,
  "2064656c69676874": 3367,
  "63636f6c69": 3368,
  "206861727368": 3369,
  "6173736573": 3370,
  "20706f77": 3371,
  "2064757374": 3372,
  "2054727565": 3373,
  "2062696379": 3374,
  "617a7a": 3375,
  "20737061676865747469": 3376,
  "20636f6d70617373696f6e": 3377,
  "207361696c6564": 3378,
  "75726b6579": 3379,
  "75626279": 3380,
  "20666f7277617264": 3381,
  "2070657273697374656e74": 3382,
  "207370656564": 3383,
  "206d697474656e": 3384,
  "20636f636f61": 3385,
  "20656e76656c": 3386,
  "207175657374696f6e73": 3387,
  "20636f6d7075746572": 3388,
  "20636f6f": 3389,
  "206665617468657273": 3390,
  "686970": 3391,
  "20676c6f7665": 3392,
  "67696e67": 3393,
  "426f626f": 3394,
  "2072696365": 3395,
  "20736872696d70": 3396,
  "206465736b": 3397,
  "2073747265616d": 3398,
  "20696e7365": 3399,
  "20706967656f6e": 3400,
  "20636861726d696e67": 3401,
  "2065617273": 3402,
  "2063617270": 3403,
  "6c63616e": 3404,
  "2072616674": 3405,
  "20656e76696f7573": 3406,
  "206b6e6f74": 3407,
  "207475726b6579": 3408,
  "207374726f6e676572": 3409,
  "6f6d6573": 3410,
  "20636f696e73": 3411,
  "20746170": 3412,
  "6c63616e6f": 3413,
  "77656574": 3414,
  "2074726170": 3415,
  "756d62657273": 3416,
  "206165726f706c616e65": 3417,
  "207472756e6b": 3418,
  "207768656174": 3419,
  "20626f786573": 3420,
  "20636875626279": 3421,
  "20636172706574": 3422,
  "20726573746c657373": 3423,
  "20696e74656c6c6967656e74": 3424,
  "2074756265": 3425,
  "207370756e": 3426,
  "20647265616d73": 3427,
  "20667269656e6473686970": 3428,
  "756c6966": 3429,
  "6f6c696e": 3430,
  "2068616c66": 3431,
  "206c6f6f70": 3432,
  "20637261776c": 3433,
  "2062726f63636f6c69": 3434,
  "206f6e696f6e": 3435,
  "2064656c69766572": 3436,
  "616e676572": 3437,
  "2061636365": 3438,
  "2076696465": 3439,
  "20766f6c63616e6f": 3440,
  "204a616b65": 3441,
  "20736c65": 3442,
  "20747261636b": 3443,
  "20627269": 3444,
  "206361756c6966": 3445,
  "2076696e65": 3446,
  "7965": 3447,
  "207469636b6574": 3448,
  "207468696566": 3449,
  "6573736965": 3450,
  "6379636c65": 3451,
  "206c6f75646572": 3452,
  "20696e73656374": 3453,
  "206e756d62657273": 3454,
  "6173696e67": 3455,
  "20796177": 3456,
  "2068616972637574": 3457,
  "6974616c": 3458,
  "20736c656570696e67": 3459,
  "206d696c6c": 3460,
  "206576656e7475616c6c79": 3461,
  "20616c657274": 3462,
  "20657863697465": 3463,
  "20706562626c65": 3464,
  "20686f7370": 3465,
  "2061747472616374": 3466,
  "20706c616e6574": 3467,
  "20546f646179": 3468,
  "20756e69766572": 3469,
  "6973746564": 3470,
  "756c75": 3471,
  "20686f73706974616c": 3472,
  "20657261736572": 3473,
  "2072657475726e6564": 3474,
  "2064657374726f": 3475,
  "20677261636566756c": 3476,
  "2068617070656e696e67": 3477,
  "61636865": 3478,
  "204f4b": 3479,
  "20456d696c79": 3480,
  "20646563696465": 3481,
  "206c6561726e696e67": 3482,
  "2073637265656e": 3483,
  "7265776f726b": 3484,
  "206e6963656c79": 3485,
  "206c656f70": 3486,
  "206361756c69666c6f776572": 3487,
  "20636f6d7065746974697665": 3488,
  "20706f656d": 3489,
  "2063656c656272617465": 3490,
  "2063757274": 3491,
  "207065616368": 3492,
  "20736f6c64696572": 3493,
  "2073617573": 3494,
  "20706172616465": 3495,
  "617469656e74": 3496,
  "2061747472616374697665": 3497,
  "206375727461696e": 3498,
  "20646f6c7068696e": 3499,
  "2062617365": 3500,
  "2076696f6c696e": 3501,
  "2077617973": 3502,
  "476f": 3503,
  "617473": 3504,
  "2074726176656c": 3505,
  "74656e": 3506,
  "20726f64": 3507,
  "2069676e6f72616e74": 3508,
  "756c62": 3509,
  "20776865656c73": 3510,
  "2079616368": 3511,
  "2073636174746572": 3512,
  "206465746572": 3513,
  "20636f6d70617373696f6e617465": 3514,
  "2062617272656c": 3515,
  "20656e76656c6f7065": 3516,
  "20627562626c65": 3517,
  "206c79696e67": 3518,
  "2066697265776f726b": 3519,
  "20736f7274": 3520,
  "207175657374696f6e": 3521,
  "7a7a79": 3522,
  "2050697070": 3523,
  "2073636f6f746572": 3524,
  "2064657465726d": 3525,
  "20726167": 3526,
  "20746875": 3527,
  "2062696379636c65": 3528,
  "656c657279": 3529,
  "206e6565646c65": 3530,
  "204672": 3531,
  "206a75646765": 3532,
  "2062756c62": 3533,
  "206c656f70617264": 3534,
  "2074656d": 3535,
  "207961636874": 3536,
  "20706f6e79": 3537,
  "20637269636b6574": 3538,
  "206f72646572": 3539,
  "20686f6d6573": 3540,
  "2061646f72": 3541,
  "7465726e": 3542,
  "207472757468": 3543,
  "20686f6f6b": 3544,
  "646f6d": 3545,
  "20727562626564": 3546,
  "657465": 3547,
  "696761746f72": 3548,
  "20627573686573": 3549,
  "5361726168": 3550,
  "20756e636c65": 3551,
  "2063757368696f6e": 3552,
  "207370656c6c": 3553,
  "2067726f776e": 3554,
  "20636f6f6b6564": 3555,
  "2061646f7261626c65": 3556,
  "206368616c6b": 3557,
  "20736f6172": 3558,
  "207075727365": 3559,
  "20736b696e": 3560,
  "207468656d73656c766573": 3561,
  "20696d70617469656e74": 3562,
  "2063656c657279": 3563,
  "2074726179": 3564,
  "207368656c6c73": 3565,
  "2070656e6775": 3566,
  "20736e696666": 3567,
  "207072756e": 3568,
  "2077616c6c73": 3569,
  "207365616c": 3570,
  "206c6976656c79": 3571,
  "2063617365": 3572,
  "20616c6c696761746f72": 3573,
  "2064697374616e74": 3574,
  "20726164697368": 3575,
  "20736179696e67": 3576,
  "20737065616b": 3577,
  "206d6f746f726379636c65": 3578,
  "206d656174": 3579,
  "2073656e64": 3580,
  "696c6c61": 3581,
  "207370696e6e696e67": 3582,
  "20666f727468": 3583,
  "20636f756e74696e67": 3584,
  "20656e7468": 3585,
  "20626f756e636564": 3586,
  "20636861696e": 3587,
  "206564": 3588,
  "20636c65616e696e67": 3589,
  "65627261": 3590,
  "2066696c6d": 3591,
  "20736c657074": 3592,
  "20706974": 3593,
  "2073757266": 3594,
  "206d61727279": 3595,
  "75736961": 3596,
  "2077616c6c6574": 3597,
  "20656e746875736961": 3598,
  "206d6574616c": 3599,
  "757262": 3600,
  "65626f6f6b": 3601,
  "2062696e": 3602,
  "207765656b": 3603,
  "206e6f7465626f6f6b": 3604,
  "207769706564": 3605,
  "20736b6970": 3606,
  "6973696f6e": 3607,
  "6368616972": 3608,
  "2062696767657374": 3609,
  "20696d70726f": 3610,
  "2061766f6361646f": 3611,
  "20626568617665": 3612,
  "2064657374726f79": 3613,
  "7661746f72": 3614,
  "2062616e64616765": 3615,
  "206c6175676873": 3616,
  "20737465616b": 3617,
  "207061747465726e": 3618,
  "205368": 3619,
  "20706f7374": 3620,
  "20656c657661746f72": 3621,
  "2042757a7a": 3622,
  "75736965": 3623,
  "2064697665": 3624,
  "2073687574": 3625,
  "20736b6970706564": 3626,
  "20756e6c6f636b": 3627,
  "206469617279": 3628,
  "64657374": 3629,
  "6a656374": 3630,
  "207a65627261": 3631,
  "2062616773": 3632,
  "6174696e67": 3633,
  "2061726d6368616972": 3634,
  "72616765": 3635,
  "61676564": 3636,
  "2064697374757262": 3637,
  "206f79": 3638,
  "20706f6c65": 3639,
  "2073686f77696e67": 3640,
  "206761746865726564": 3641,
  "20636c7562": 3642,
  "206e75727365": 3643,
  "62756c": 3644,
  "206561727468": 3645,
  "20656e63": 3646,
  "20737472616e676572": 3647,
  "2073776561746572": 3648,
  "206a656c6c7966697368": 3649,
  "207363726577": 3650,
  "2074656d70": 3651,
  "20506f707079": 3652,
  "20636f6d706c": 3653,
  "206d69786572": 3654,
  "47697665": 3655,
  "20736b756c6c": 3656,
  "206c696d65": 3657,
  "2062756d70": 3658,
  "62756c616e6365": 3659,
  "20616d62756c616e6365": 3660,
  "6e616d": 3661,
  "20666174686572": 3662,
  "206a6f75726e616c": 3663,
  "477261": 3664,
  "206c6f75646c79": 3665,
  "69746f": 3666,
  "20666f6c646572": 3667,
  "20736869656c64": 3668,
  "20426574": 3669,
  "204c756c75": 3670,
  "206c696272617279": 3671,
  "205065746572": 3672,
  "20627574746f6e73": 3673,
  "20706c617967726f756e64": 3674,
  "20747275636b73": 3675,
  "20696e6b": 3676,
  "206c6967687473": 3677,
  "2074756d6d79": 3678,
  "20706f696e74696e67": 3679,
  "2063697479": 3680,
  "206465636f72617465": 3681,
  "2073746174696f6e": 3682,
  "69726974": 3683,
  "2070726570": 3684,
  "2066616c6c73": 3685,
  "717569746f": 3686,
  "20506f6c6c79": 3687,
  "42696c6c79": 3688,
  "206675": 3689,
  "20466f": 3690,
  "656e74696f6e": 3691,
  "6e676572": 3692,
  "204269726479": 3693,
  "6c696573": 3694,
  "2068657262": 3695,
  "6e616d656e74": 3696,
  "206f726e616d656e74": 3697,
  "206d6f64657374": 3698,
  "206775617264": 3699,
  "206d6f73": 3700,
  "206b6e6f7773": 3701,
  "20636f7264": 3702,
  "20706f6c697368": 3703,
  "206d6172626c65": 3704,
  "6f6279": 3705,
  "206d6f73717569746f": 3706,
  "756d626c6564": 3707,
  "2073616c74": 3708,
  "206174746963": 3709,
  "207768656e65766572": 3710,
  "2076657374": 3711,
  "63746f70": 3712,
  "2072657363": 3713,
  "20796574": 3714,
  "20706c65": 3715,
  "206469736170706561726564": 3716,
  "63656564": 3717,
  "2073747261776265727279": 3718,
  "206f6e6365": 3719,
  "204d756d": 3720,
  "206b6179": 3721,
  "2062726f7468657273": 3722,
  "2069746368": 3723,
  "20706972617465": 3724,
  "20666f6f7462616c6c": 3725,
  "2073706c6974": 3726,
  "6b656c65": 3727,
  "6b656c65746f6e": 3728,
  "2068697070": 3729,
  "20617574": 3730,
  "206c6564": 3731,
  "7572696e67": 3732,
  "63746f707573": 3733,
  "2064726976696e67": 3734,
  "206361626c65": 3735,
  "20737570706f7274": 3736,
  "2063616c6c696e67": 3737,
  "20637570626f617264": 3738,
  "616b79": 3739,
  "7573686564": 3740,
  "20776973686573": 3741,
  "20636f6d706c6574": 3742,
  "2074726970706564": 3743,
  "20726f6f74": 3744,
  "206b6179616b": 3745,
  "206f63746f707573": 3746,
  "6f62696c65": 3747,
  "206164646564": 3748,
  "2065646765": 3749,
  "206d696c64": 3750,
  "73746963": 3751,
  "2064657465726d696e6564": 3752,
  "2073756363656564": 3753,
  "3f222e": 3754,
  "2072656164696e67": 3755,
  "6f6d6f62696c65": 3756,
  "20636f616c": 3757,
  "57656c6c": 3758,
  "676c": 3759,
  "75746573": 3760,
  "706172": 3761,
  "2073756767657374": 3762,
  "20737461636b": 3763,
  "207468756e646572": 3764,
  "206b696e646e657373": 3765,
  "206175746f6d6f62696c65": 3766,
  "20636f6d706c61696e": 3767,
  "20656e74687573696173746963": 3768,
  "20736e65657a65": 3769,
  "20636172746f6f6e": 3770,
  "20796f6761": 3771,
  "204c6974746c65": 3772,
  "2067726f776c": 3773,
  "68747562": 3774,
  "20666c6561": 3775,
  "6c61": 3776,
  "206d6561646f77": 3777,
  "20647261776572": 3778,
  "2062617468747562": 3779,
  "2072696262": 3780,
  "6f70686f6e65": 3781,
  "206d65616e73": 3782,
  "2068616c6c": 3783,
  "20676f6c66": 3784,
  "20736b656c65746f6e": 3785,
  "206d617468": 3786,
  "207665696c": 3787,
  "2068756e746572": 3788,
  "20676f72": 3789,
  "20666c616d65": 3790,
  "20706f6b65": 3791,
  "20766964656f": 3792,
  "206368657373": 3793,
  "2074726f7068": 3794,
  "2063757073": 3795,
  "20676c6f77696e67": 3796,
  "206d617474": 3797,
  "206f7973746572": 3798,
  "776f726b": 3799,
  "2070656e6e79": 3800,
  "207370656172": 3801,
  "20697473656c66": 3802,
  "2064726177696e6773": 3803,
  "20686970706f": 3804,
  "20726570616972": 3805,
  "20737769746368": 3806,
  "676c6173736573": 3807,
  "2073756e676c6173736573": 3808,
  "2074656c657068": 3809,
  "20636f7374756d65": 3810,
  "2064657373": 3811,
  "207a697070": 3812,
  "2ce2809d": 3813,
  "2072657065": 3814,
  "206d756666696e": 3815,
  "20617267": 3816,
  "20706173747279": 3817,
  "2070756e": 3818,
  "20726f6c6c696e67": 3819,
  "206d696e75746573": 3820,
  "207061636b6564": 3821,
  "206d616b657570": 3822,
  "69726f6e": 3823,
  "726963": 3824,
  "2050656f706c65": 3825,
  "20776166666c65": 3826,
  "63617365": 3827,
  "2068616e646c65": 3828,
  "2070656172": 3829,
  "206d617a65": 3830,
  "2074656c6570686f6e65": 3831,
  "2070696e65": 3832,
  "616974": 3833,
  "2067656172": 3834,
  "206865646765": 3835,
  "206d61747472657373": 3836,
  "207061636b616765": 3837,
  "6176696e67": 3838,
  "204d697373": 3839,
  "2073686f636b6564": 3840,
  "696e6573": 3841,
  "2074726f706879": 3842,
  "20706f77646572": 3843,
  "206b6e69676874": 3844,
  "20636f62": 3845,
  "206d697373696c65": 3846,
  "206d616e61676564": 3847,
  "206672616d65": 3848,
  "20656e636f75": 3849,
  "2077696665": 3850,
  "206f6b": 3851,
  "207365706172": 3852,
  "776562": 3853,
  "20737461697273": 3854,
  "20726f74": 3855,
  "2063616d70": 3856,
  "75726368": 3857,
  "726f70686f6e65": 3858,
  "206d6167617a": 3859,
  "20737472756767": 3860,
  "20636f6c6f7572": 3861,
  "20677261706573": 3862,
  "74696d65": 3863,
  "2066696c65": 3864,
  "68656164": 3865,
  "2054696e61": 3866,
  "206261736b657462616c6c": 3867,
  "427965": 3868,
  "6f6c64": 3869,
  "706572": 3870,
  "20636f62776562": 3871,
  "5265": 3872,
  "4a696d6d79": 3873,
  "205477656574": 3874,
  "536565": 3875,
  "207065726d": 3876,
  "20776f6f6c": 3877,
  "2044616e": 3878,
  "206d6963726f70686f6e65": 3879,
  "6573646179": 3880,
  "20657965": 3881,
  "206c65617368": 3882,
  "2067617370": 3883,
  "696577": 3884,
  "6b656570": 3885,
  "2077656570": 3886,
  "206261726b696e67": 3887,
  "6174757265": 3888,
  "20736166656c79": 3889,
  "2074656172": 3890,
  "2076696577": 3891,
  "666665": 3892,
  "20736c69646573": 3893,
  "207374657073": 3894,
  "6973746f6c": 3895,
  "66666565": 3896,
  "2062616e616e6173": 3897,
  "207374616666": 3898,
  "20737069726974": 3899,
  "207461736b": 3900,
  "20676967676c6564": 3901,
  "20686f63": 3902,
  "20686f636b6579": 3903,
  "2076656e64": 3904,
  "2074686f7365": 3905,
  "20676f72696c6c61": 3906,
  "4a696c6c": 3907,
  "20636f6f6c6572": 3908,
  "20526f7365": 3909,
  "776173": 3910,
  "63696e67": 3911,
  "206561726c79": 3912,
  "206d617263686564": 3913,
  "726f7363": 3914,
  "206d696e74": 3915,
  "204c6f6f6b": 3916,
  "776173686572": 3917,
  "20666c6f7572": 3918,
  "20686f74656c": 3919,
  "686963": 3920,
  "207361696c6f72": 3921,
  "2064657373657274": 3922,
  "2070686f746f": 3923,
  "726f73636f7065": 3924,
  "207665686963": 3925,
  "696c6f74": 3926,
  "206f6674656e": 3927,
  "20636875726368": 3928,
  "2050657465": 3929,
  "20636f6f6b696e67": 3930,
  "2072656d61696e": 3931,
  "2066697665": 3932,
  "2073617573616765": 3933,
  "6f74746572": 3934,
  "2074656e": 3935,
  "20746f6f6c73": 3936,
  "206d6564616c": 3937,
  "20656974686572": 3938,
  "20666972656d616e": 3939,
  "63686f72": 3940,
  "206772616e647061": 3941,
  "206f74746572": 3942,
  "206261736562616c6c": 3943,
  "2070726574656e64696e67": 3944,
  "20706973746f6c": 3945,
  "2064697368776173686572": 3946,
  "207265766572": 3947,
  "206f7267616e697a65": 3948,
  "20706565": 3949,
  "2076656e646f72": 3950,
  "206b6e6f636b": 3951,
  "207369676874": 3952,
  "206772696c6c": 3953,
  "2074656d706c65": 3954,
  "2062617474657279": 3955,
  "207468696e6b696e67": 3956,
  "206f70656e73": 3957,
  "206f77": 3958,
  "207265616c69736564": 3959,
  "2069726f6e": 3960,
  "206c61736572": 3961,
  "20736e65": 3962,
  "2073616e64626f78": 3963,
  "206f696c": 3964,
  "207061746368": 3965,
  "20686f757273": 3966,
  "2072697365": 3967,
  "2077686970": 3968,
  "2764": 3969,
  "63746f7279": 3970,
  "2047697665": 3971,
  "20616e63686f72": 3972,
  "207472617368": 3973,
  "656e7365": 3974,
  "2073686f7274": 3975,
  "6e6579": 3976,
  "204265747479": 3977,
  "207268696e": 3978,
  "20666163746f7279": 3979,
  "7365756d": 3980,
  "206d6179": 3981,
  "2077617264": 3982,
  "6174656c79": 3983,
  "2063617264626f617264": 3984,
  "7567676564": 3985,
  "206c6f74696f6e": 3986,
  "416c": 3987,
  "206d657373616765": 3988,
  "2076616c75": 3989,
  "2077617264726f6265": 3990,
  "2063656c6c": 3991,
  "206d757365756d": 3992,
  "6170657273": 3993,
  "207572": 3994,
  "696e6174696f6e": 3995,
  "2068616e67696e67": 3996,
  "75636574": 3997,
  "61696c61626c65": 3998,
  "2053756e6e79": 3999,
  "205a6f6f6d": 4000,
  "2068697665": 4001,
  "656572": 4002,
  "20746f77657273": 4003,
  "6b6565706572": 4004,
  "20626c61636b626f617264": 4005,
  "206d656d": 4006,
  "206578636974656d656e74": 4007,
  "20636f66666565": 4008,
  "2070696c6f74": 4009,
  "7265616479": 4010,
  "466c75666679": 4011,
  "206e61706b696e": 4012,
  "2070656e6775696e": 4013,
  "726f6e": 4014,
  "20636865636b": 4015,
  "20726577617264": 4016,
  "6c6f6f": 4017,
  "2071756974": 4018,
  "2050697070696e": 4019,
  "2063616e65": 4020,
  "207069636b696e67": 4021,
  "706c616365": 4022,
  "20536e6f77": 4023,
  "617a6f72": 4024,
  "20666175636574": 4025,
  "206967": 4026,
  "2070617373706f7274": 4027,
  "20526f62": 4028,
  "207374756d626c6564": 4029,
  "20647265616d6564": 4030,
  "2069676c6f6f": 4031,
  "20426573736965": 4032,
  "61726f6f": 4033,
  "616e6761726f6f": 4034,
  "20667265657a": 4035,
  "206a75696379": 4036,
  "20616c6c6f776564": 4037,
  "706c6179": 4038,
  "20686f6c6473": 4039,
  "20616c7265616479": 4040,
  "20617661696c61626c65": 4041,
  "2073657474": 4042,
  "206261746865": 4043,
  "20746f726e61646f": 4044,
  "696d6e6579": 4045,
  "2066696e67657273": 4046,
  "6874726179": 4047,
  "2068616e676572": 4048,
  "206e65777370": 4049,
  "2073697a65": 4050,
  "206c61756e64": 4051,
  "206c656e64": 4052,
  "206368696d6e6579": 4053,
  "206c61756e647279": 4054,
  "206f616b": 4055,
  "20666973686572": 4056,
  "206b616e6761726f6f": 4057,
  "206d656e": 4058,
  "2045766572797768657265": 4059,
  "2074656c6c696e67": 4060,
  "456d": 4061,
  "206e6f76656c": 4062,
  "626f6479": 4063,
  "206d756d6d79": 4064,
  "2070616c": 4065,
  "206d756c65": 4066,
  "206368657272696573": 4067,
  "206e6f74696365": 4068,
  "207072616374696365": 4069,
  "207370696c6c6564": 4070,
  "207265696e64": 4071,
  "20636f6d706c657465": 4072,
  "20656e6a6f79696e67": 4073,
  "206d6963726f73636f7065": 4074,
  "617269616e": 4075,
  "616d706f6f": 4076,
  "206761696e": 4077,
  "20737562": 4078,
  "2066697265706c616365": 4079,
  "20696d6167696e65": 4080,
  "616e6461": 4081,
  "20646973706c6179": 4082,
  "6f636572": 4083,
  "205a6970": 4084,
  "2066617374657374": 4085,
  "206d6167617a696e65": 4086,
  "206875727279": 4087,
  "20636162696e6574": 4088,
  "20736872696e6b": 4089,
  "2061736874726179": 4090,
  "57616974": 4091,
  "20636f7773": 4092,
  "205370696b65": 4093,
  "4a6f65": 4094,
  "67656e": 4095,
  "2070616c616365": 4096,
  "20696d70726f7665": 4097,
  "6163686573": 4098,
  "2072616b65": 4099,
  "207265696e64656572": 4100,
  "2066616c6c696e67": 4101,
  "6f6365726f73": 4102,
  "20736b697274": 4103,
  "75726564": 4104,
  "20646973636f7665726564": 4105,
  "20737461726564": 4106,
  "20726f61726564": 4107,
  "616964": 4108,
  "2073696c766572": 4109,
  "20747562": 4110,
  "20747261696c": 4111,
  "4973": 4112,
  "206d696e6572": 4113,
  "636f6d65": 4114,
  "2062696c6c": 4115,
  "696374696f6e": 4116,
  "20666f67": 4117,
  "206178": 4118,
  "737461697273": 4119,
  "696c6574": 4120,
  "20687574": 4121,
  "2068617070696572": 4122,
  "2074616c6c6572": 4123,
  "696374696f6e617279": 4124,
  "206f617473": 4125,
  "206669736865726d616e": 4126,
  "206f626a656374": 4127,
  "20706f72": 4128,
  "766973696f6e": 4129,
  "2076616c7561626c65": 4130,
  "207368616d706f6f": 4131,
  "20686f6c6573": 4132,
  "206f666665726564": 4133,
  "20626f6f7473": 4134,
  "207268696e6f6365726f73": 4135,
  "206e616d6573": 4136,
  "20746f696c6574": 4137,
  "20636c696d62696e67": 4138,
  "20626c696e": 4139,
  "76696365": 4140,
  "4f77": 4141,
  "20737472657463686564": 4142,
  "69657374": 4143,
  "207a6970706572": 4144,
  "206c697374656e696e67": 4145,
  "2073796d": 4146,
  "2062617468726f6265": 4147,
  "616c656e64": 4148,
  "206a6577656c7279": 4149,
  "2048657265": 4150,
  "206a6f6b6573": 4151,
  "2074656c65766973696f6e": 4152,
  "2070726f76": 4153,
  "2063616c656e64": 4154,
  "2073746f7073": 4155,
  "20617865": 4156,
  "206a756d7073": 4157,
  "206675656c": 4158,
  "6375": 4159,
  "20737061726b6c79": 4160,
  "2070657266756d65": 4161,
  "205375736965": 4162,
  "2062757279": 4163,
  "626f6c": 4164,
  "4d756d6d79": 4165,
  "6c75": 4166,
  "2070726573736564": 4167,
  "204b696d": 4168,
  "7265656b": 4169,
  "2072656365": 4170,
  "6661": 4171,
  "20546f6279": 4172,
  "206e656174": 4173,
  "20637265656b": 4174,
  "20706f70706564": 4175,
  "206f70657261": 4176,
  "2063616c656e646172": 4177,
  "20736e6170": 4178,
  "20676173706564": 4179,
  "20617474616368": 4180,
  "2073796d626f6c": 4181,
  "2074756e61": 4182,
  "204d6172": 4183,
  "20706170657273": 4184,
  "4d72": 4185,
  "20756e7061636b": 4186,
  "20726573697374": 4187,
  "2064696374696f6e617279": 4188,
  "20737562776179": 4189,
  "206c657474657273": 4190,
  "20667265657a6572": 4191,
  "2063686f7365": 4192,
  "2070696e6368": 4193,
  "7a6167": 4194,
  "2073706f6b65": 4195,
  "20616e79776179": 4196,
  "207375706572": 4197,
  "20706f726368": 4198,
  "2068656c706572": 4199,
  "61666665": 4200,
  "2062696b6573": 4201,
  "206c6965": 4202,
  "61727279": 4203,
  "6963686573": 4204,
  "2074696768746c79": 4205,
  "20636f6d666f7274": 4206,
  "207368616b696e67": 4207,
  "20626f6f6b63617365": 4208,
  "20736f6e": 4209,
  "2072617a6f72": 4210,
  "617572616e74": 4211,
  "2073616e64776963686573": 4212,
  "20417265": 4213,
  "69677a6167": 4214,
  "207765696768": 4215,
  "20616761696e7374": 4216,
  "20737469636b657273": 4217,
  "2072657374617572616e74": 4218,
  "206e6577737061706572": 4219,
  "20626c6f757365": 4220,
  "2076656869636c65": 4221,
  "207377696e67696e67": 4222,
  "20706564": 4223,
  "206469736167": 4224,
  "206e6174757265": 4225,
  "20737175697272656c73": 4226,
  "6976616c": 4227,
  "2062656c6f6e6773": 4228,
  "207377616d70": 4229,
  "20627574746572666c696573": 4230,
  "2067796d": 4231,
  "64656c": 4232,
  "20696e636c75": 4233,
  "2067726f77696e67": 4234,
  "206275636b6c65": 4235,
  "6f6d6564": 4236,
  "2073746972726564": 4237,
  "206d75737461636865": 4238,
  "2062696c6c626f617264": 4239,
  "7879": 4240,
  "2062656570": 4241,
  "7465": 4242,
  "20616c61726d": 4243,
  "206c696768746e696e67": 4244,
  "206c6970": 4245,
  "2066657374": 4246,
  "2068756e67": 4247,
  "75746f72": 4248,
  "2064697374616e6365": 4249,
  "6f676e": 4250,
  "206361726473": 4251,
  "206f62736572": 4252,
  "206167726565": 4253,
  "4c6974746c65": 4254,
  "20657874": 4255,
  "207465617365": 4256,
  "207265636f676e": 4257,
  "20727562626572": 4258,
  "696b": 4259,
  "2068617465": 4260,
  "66617374": 4261,
  "6566": 4262,
  "4f756368": 4263,
  "20646f65736e": 4264,
  "206d7573696369616e": 4265,
  "20616476696365": 4266,
  "2062656566": 4267,
  "207365727665": 4268,
  "6173706f6f6e": 4269,
  "2073776565746965": 4270,
  "206d6f64656c": 4271,
  "6c746572": 4272,
  "2063726962": 4273,
  "20626c756562657272696573": 4274,
  "20736f6661": 4275,
  "20636972636c6573": 4276,
  "20627265616b66617374": 4277,
  "207475746f72": 4278,
  "61736973": 4279,
  "20626f6f6b736865": 4280,
  "2067697261666665": 4281,
  "73747269": 4282,
  "20666573746976616c": 4283,
  "207365706172617465": 4284,
  "207368656c746572": 4285,
  "20676173": 4286,
  "20616972706f7274": 4287,
  "206f6c697665": 4288,
  "207261696c": 4289,
  "20626f6f6b7368656c66": 4290,
  "2066726f6773": 4291,
  "2074656173706f6f6e": 4292,
  "2072657665727365": 4293,
  "206a756e6b": 4294,
  "20726964696e67": 4295,
  "20706c6561736564": 4296,
  "20647261696e": 4297,
  "204d7273": 4298,
  "2077697065": 4299,
  "206f61736973": 4300,
  "20736f696c": 4301,
  "206168656164": 4302,
  "20726573637565": 4303,
  "206c656176696e67": 4304,
  "756d6d6572": 4305,
  "207061696e746572": 4306,
  "2073717565657a65": 4307,
  "206368616e6365": 4308,
  "20706f6b6564": 4309,
  "206b6e6f62": 4310,
  "205465646479": 4311,
  "207065656b6564": 4312,
  "206c756d626572": 4313,
  "20747261696e73": 4314,
  "206578747261": 4315,
  "20736c697070": 4316,
  "207175697a": 4317,
  "2072656675736564": 4318,
  "726573": 4319,
  "726d6f6d6574": 4320,
  "2070616765": 4321,
  "2072756c6573": 4322,
  "2068617070656e73": 4323,
  "20736f756e646564": 4324,
  "20696e73": 4325,
  "20706f696e74": 4326,
  "2077696e746572": 4327,
  "2064616e636572": 4328,
  "204772616e647061": 4329,
  "206269726463": 4330,
  "20646973617070656172": 4331,
  "726d6f6d65746572": 4332,
  "20446f6c6c79": 4333,
  "2077656174686572": 4334,
  "207761737465": 4335,
  "206c6963": 4336,
  "206269726463616765": 4337,
  "2074686561746572": 4338,
  "2072656566": 4339,
  "206361727279696e67": 4340,
  "4461697379": 4341,
  "20696e76697465": 4342,
  "69666f726d": 4343,
  "20676f616c": 4344,
  "206f73747269": 4345,
  "20756e69666f726d": 4346,
  "207377756e67": 4347,
  "207472616465": 4348,
  "20636c696666": 4349,
  "69656e6365": 4350,
  "206c61776e": 4351,
  "6f6c61": 4352,
  "206c65616e6564": 4353,
  "2050616e6479": 4354,
  "616e6775": 4355,
  "20616363657074": 4356,
  "2061646d697265": 4357,
  "20666f7274": 4358,
  "206163636964656e74616c6c79": 4359,
  "2070617374656c": 4360,
  "62626c6573": 4361,
  "2073746f6d": 4362,
  "206c616e6775": 4363,
  "2074776972": 4364,
  "2073756666": 4365,
  "2070616e6461": 4366,
  "7269676572": 4367,
  "20626574": 4368,
  "726967657261746f72": 4369,
  "207065656b": 4370,
  "72656e646572": 4371,
  "20626c696e6b6564": 4372,
  "20737461727473": 4373,
  "6e61": 4374,
  "20726566726967657261746f72": 4375,
  "20616e797768657265": 4376,
  "21222e": 4377,
  "20696d6167696e6564": 4378,
  "20647265616d696e67": 4379,
  "2072656d6f7665": 4380,
  "6e69676874": 4381,
  "2073686f776572": 4382,
  "204c6565": 4383,
  "20436f": 4384,
  "20636c617373726f6f6d": 4385,
  "206365696c696e67": 4386,
  "20636172696e67": 4387,
  "69756d": 4388,
  "206772616e64": 4389,
  "206d697373696e67": 4390,
  "616b6564": 4391,
  "206c6963656e7365": 4392,
  "20737461626c65": 4393,
  "20746865726d6f6d65746572": 4394,
  "206d6f6e6b657973": 4395,
  "6173746963": 4396,
  "207761726e6564": 4397,
  "2073756d6d6572": 4398,
  "205768657265": 4399,
  "2061626f7665": 4400,
  "20627269636b": 4401,
  "6563746564": 4402,
  "2063756464": 4403,
  "2070726f626c656d73": 4404,
  "616d626572": 4405,
  "2063686173696e67": 4406,
  "206c6162656c": 4407,
  "206170726f6e": 4408,
  "2073656e74": 4409,
  "75726e6974": 4410,
  "75726e6974757265": 4411,
  "206c617779": 4412,
  "206c6964": 4413,
  "756767616765": 4414,
  "6d6564": 4415,
  "207265737065637466756c": 4416,
  "206675726e6974757265": 4417,
  "2066726f776e6564": 4418,
  "207a6f6f6d6564": 4419,
  "207061676573": 4420,
  "2070726576656e74": 4421,
  "2062656e74": 4422,
  "206c756767616765": 4423,
  "206d697374616b6573": 4424,
  "2073756e736574": 4425,
  "206f737472696368": 4426,
  "69736f6e": 4427,
  "20737567676573746564": 4428,
  "2077696e646f7773": 4429,
  "6174696f6e73": 4430,
  "206a61696c": 4431,
  "6c6f77": 4432,
  "2077696e65": 4433,
  "20726962626f6e": 4434,
  "206f6c646572": 4435,
  "2073686f757473": 4436,
  "206772617065": 4437,
  "20436c": 4438,
  "2077696767": 4439,
  "756374757265": 4440,
  "20737472756374757265": 4441,
  "2073706f696c": 4442,
  "656f72": 4443,
  "20666978696e67": 4444,
  "206368616d626572": 4445,
  "206c696f6e73": 4446,
  "2064656c6179": 4447,
  "2066696e6473": 4448,
  "2068616e646564": 4449,
  "20736561726368696e67": 4450,
  "20756e697465": 4451,
  "446964": 4452,
  "20666f75676874": 4453,
  "206c6177796572": 4454,
  "206272696768746c79": 4455,
  "2070616972": 4456,
  "206d656574696e67": 4457,
  "2063686f696365": 4458,
  "20737572707269736573": 4459,
  "20456c6c6965": 4460,
  "20617274": 4461,
  "20556e": 4462,
  "4368": 4463,
  "206661766f7572": 4464,
  "65746572696e": 4465,
  "65746572696e617269616e": 4466,
  "616469756d": 4467,
  "207374616469756d": 4468,
  "2070726f75646c79": 4469,
  "696b69": 4470,
  "207665746572696e617269616e": 4471,
  "766574": 4472,
  "726f64": 4473,
  "20636861697273": 4474,
  "20736c6970": 4475,
  "20537065": 4476,
  "207361646c79": 4477,
  "20426f77": 4478,
  "20696e637265": 4479,
  "204361726c": 4480,
  "20707564646c6573": 4481,
  "206265727279": 4482,
  "20696e74726f64": 4483,
  "2072616e6368": 4484,
  "7665616c": 4485,
  "20426f756e": 4486,
  "206172677565": 4487,
  "2056": 4488,
  "2061646d69726564": 4489,
  "20637572": 4490,
  "206661766f7572697465": 4491,
  "596f7572": 4492,
  "20696e66": 4493,
  "20657863697465646c79": 4494,
  "20726163": 4495,
  "206772616273": 4496,
  "6d656e64": 4497,
  "20737465616d": 4498,
  "7468616e6b": 4499,
  "2068756d616e": 4500,
  "656f726765": 4501,
  "73697479": 4502,
  "2048656c": 4503,
  "2070757368696e67": 4504,
  "20736176696e67": 4505,
  "20526564": 4506,
  "2072657665616c": 4507,
  "6f6d6d656e64": 4508,
  "616c6c6579": 4509,
  "207969656c64": 4510,
  "6f6c6f67": 4511,
  "206d616c6c": 4512,
  "2072656d696e646564": 4513,
  "207265636f6d6d656e64": 4514,
  "206c65616b": 4515,
  "2073757272656e646572": 4516,
  "2068617262": 4517,
  "206170706c": 4518,
  "63757373": 4519,
  "61756c": 4520,
  "2077656170": 4521,
  "20726567726574": 4522,
  "2070757474696e67": 4523,
  "2076616c6c6579": 4524,
  "206d696e6572616c": 4525,
  "206576656e696e67": 4526,
  "656c636f6d65": 4527,
  "206d617463686573": 4528,
  "20666f7267617665": 4529,
  "20736e65657a6564": 4530,
  "20707570": 4531,
  "206177": 4532,
  "20727573686564": 4533,
  "656361757365": 4534,
  "207370616465": 4535,
  "2061706f6c6f67": 4536,
  "20706c61746573": 4537,
  "2064697363757373": 4538,
  "2070726570617265": 4539,
  "20686172626f72": 4540,
  "2069676e6f7265": 4541,
  "20426967": 4542,
  "20636f756e747279": 4543,
  "206c616e6775616765": 4544,
  "2042757a7a79": 4545,
  "2070756c6c73": 4546,
  "20706c6173746963": 4547,
  "20737570706c79": 4548,
  "20666c6f6174": 4549,
  "20736e6966666564": 4550,
  "204a617a7a": 4551,
  "207265706c616365": 4552,
  "206d656173": 4553,
  "2073686f76656c": 4554,
  "2042696c6c": 4555,
  "207261697365": 4556,
  "204e657874": 4557,
  "20667265": 4558,
  "206361726564": 4559,
  "20736f636b73": 4560,
  "207374726970": 4561,
  "20646f6f7273": 4562,
  "206d797374657279": 4563,
  "206c69766573": 4564,
  "20726573746f7265": 4565,
  "20737469636b6572": 4566,
  "2073756464656e": 4567,
  "617269": 4568,
  "206b696e6473": 4569,
  "20736c697070657279": 4570,
  "65726f": 4571,
  "204f77": 4572,
  "20706c61796572": 4573,
  "2070616e6963": 4574,
  "726963616e65": 4575,
  "20686f70696e67": 4576,
  "69646179": 4577,
  "2073686f6e65": 4578,
  "6c6578": 4579,
  "6865726f": 4580,
  "20626567": 4581,
  "204d696b65": 4582,
  "2042696e6b79": 4583,
  "2073757065726865726f": 4584,
  "2064656c696768746564": 4585,
  "2067726f": 4586,
  "596179": 4587,
  "617564": 4588,
  "6368616e": 4589,
  "20636869636b656e73": 4590,
  "2073686f756c646572": 4591,
  "207261696e6564": 4592,
  "20636f6c6f757266756c": 4593,
  "206272656174": 4594,
  "20416c696365": 4595,
  "20636c6177": 4596,
  "20427562626c6573": 4597,
  "5975636b": 4598,
  "20736f66746c79": 4599,
  "72697365": 4600,
  "20706f7274": 4601,
  "4772616e646d61": 4602,
  "20686f6c": 4603,
  "69636572": 4604,
  "20686f6c69646179": 4605,
  "20e280": 4606,
  "206261726b73": 4607,
  "61736f6e": 4608,
  "207468726f77696e67": 4609,
  "20706c616e6573": 4610,
  "4d617279": 4611,
  "2062656e64": 4612,
  "20467265646479": 4613,
  "207368616b6573": 4614,
  "20696e66616e74": 4615,
  "20656e646564": 4616,
  "20736869766572696e67": 4617,
  "206b6e65656c": 4618,
  "2073756e72697365": 4619,
  "20707573686573": 4620,
  "204f6c697665": 4621,
  "207468616e6b73": 4622,
  "206672657368": 4623,
  "20737566666572": 4624,
  "20706f696e7473": 4625,
  "696d6564": 4626,
  "7761726473": 4627,
  "20506174": 4628,
  "20746970": 4629,
  "20537065656479": 4630,
  "20667265657a65": 4631,
  "206b656570696e67": 4632,
  "20576f756c64": 4633,
  "20676967676c65": 4634,
  "20636f70706572": 4635,
  "20736d656c6c73": 4636,
  "2064656172": 4637,
  "20656e746572": 4638,
  "2070726f76696465": 4639,
  "63617374": 4640,
  "6368616e6963": 4641,
  "20646973686573": 4642,
  "20456e64": 4643,
  "636f6e64": 4644,
  "20756e68": 4645,
  "4e657874": 4646,
  "206170706c617564": 4647,
  "206865616473": 4648,
  "20687572726963616e65": 4649,
  "20636865727279": 4650,
  "207468756d62": 4651,
  "206d656e75": 4652,
  "206d656f776564": 4653,
  "206d617373": 4654,
  "207365636f6e64": 4655,
  "206272696768746572": 4656,
  "696e6365": 4657,
  "2073616e6463617374": 4658,
  "206d656368616e6963": 4659,
  "20777265": 4660,
  "2073707261796564": 4661,
  "206c657474696e67": 4662,
  "206576656e74": 4663,
  "20776561706f6e": 4664,
  "206c6175676874": 4665,
  "2078": 4666,
  "206c61756768746572": 4667,
  "20636c617070696e67": 4668,
  "206665656c696e6773": 4669,
  "57696c6c": 4670,
  "69636b79": 4671,
  "2073706c617368696e67": 4672,
  "656d656e74": 4673,
  "204f72": 4674,
  "61636b6564": 4675,
  "20636173746c6573": 4676,
  "20466c": 4677,
  "636572": 4678,
  "2073636f7265": 4679,
  "617070696e67": 4680,
  "20756e697665727365": 4681,
  "206e617679": 4682,
  "2064656d": 4683,
  "20737469636b79": 4684,
  "6f70686965": 4685,
  "20726f6f6d73": 4686,
  "20726f77": 4687,
  "20666c696573": 4688,
  "696769": 4689,
  "2044617665": 4690,
  "20756e6861707079": 4691,
  "20677265656479": 4692,
  "2064617265": 4693,
  "20616c697665": 4694,
  "20627265616b73": 4695,
  "20656e6572": 4696,
  "20636f7572616765": 4697,
  "20696e766974": 4698,
  "5265616479": 4699,
  "20726570656174": 4700,
  "2064656d616e64": 4701,
  "2074727573746564": 4702,
  "4c697361": 4703,
  "20736f6d657768657265": 4704,
  "61726c6965": 4705,
  "207072756e65": 4706,
  "626c6573": 4707,
  "20777265636b": 4708,
  "2059": 4709,
  "20736b696c6c": 4710,
  "206578616d696e65": 4711,
  "207061727473": 4712,
  "79656172": 4713,
  "20656174656e": 4714,
  "6f65": 4715,
  "416c6c": 4716,
  "657263": 4717,
  "656e7279": 4718,
  "206d656e74696f6e": 4719,
  "207261696e696e67": 4720,
  "2048656c70": 4721,
  "4275646479": 4722,
  "207468726f7773": 4723,
  "206a6f67676564": 4724,
  "7175657374": 4725,
  "207374617274696e67": 4726,
  "2072757368": 4727,
  "20706f69736f6e": 4728,
  "2070697261746573": 4729,
  "6865617274": 4730,
  "20766163": 4731,
  "20636f6e74656e74": 4732,
  "456d6d61": 4733,
  "204b696b69": 4734,
  "2073696768": 4735,
  "20666c6170706564": 4736,
  "2064726f7073": 4737,
  "206368697270": 4738,
  "2073706f7274": 4739,
  "5175": 4740,
  "20737061726b6c6564": 4741,
  "205a6f6f6d79": 4742,
  "20676976656e": 4743,
  "20737472656e67": 4744,
  "20737465656c": 4745,
  "416e6e": 4746,
  "2062756d706564": 4747,
  "207961776e6564": 4748,
  "2073747564": 4749,
  "2072657175657374": 4750,
  "2073636f6c64": 4751,
  "206d7973656c66": 4752,
  "20737472656e677468": 4753,
  "207368727567676564": 4754,
  "4d61726b": 4755,
  "20636f617473": 4756,
  "2070756e697368": 4757,
  "20657175": 4758,
  "20736e756767": 4759,
  "20756e6976657273697479": 4760,
  "2070616964": 4761,
  "204a6f686e6e79": 4762,
  "2070696773": 4763,
  "2073637261746368": 4764,
  "20746f65": 4765,
  "206578657263": 4766,
  "20747261636b73": 4767,
  "207570737461697273": 4768,
  "20707261796564": 4769,
  "2063726f73736564": 4770,
  "2073717565657a6564": 4771,
  "20696d70726573736564": 4772,
  "20666c6f6f64": 4773,
  "20626f756e63696e67": 4774,
  "205275": 4775,
  "416c696365": 4776,
  "2072616262697473": 4777,
  "676573": 4778,
  "206261646c79": 4779,
  "2e2e": 4780,
  "207761726e": 4781,
  "206c656174686572": 4782,
  "20657870656374": 4783,
  "206e657773": 4784,
  "2074696465": 4785,
  "20546564": 4786,
  "206d696e757465": 4787,
  "206265617273": 4788,
  "20636c617773": 4789,
  "2062757a7a": 4790,
  "2073776565746865617274": 4791,
  "20536d": 4792,
  "797468": 4793,
  "206e6174696f6e": 4794,
  "5368": 4795,
  "7974686d": 4796,
  "207661636174696f6e": 4797,
  "2068697374": 4798,
  "2068656174": 4799,
  "20737472617762657272696573": 4800,
  "206f627365727665": 4801,
  "206578706c6f726564": 4802,
  "20736574746c65": 4803,
  "2073616e64636173746c65": 4804,
  "207961776e": 4805,
  "20686973746f7279": 4806,
  "204c696c6c79": 4807,
  "204c6f6c61": 4808,
  "6d617265": 4809,
  "204d756d6d79": 4810,
  "2053717565": 4811,
  "69616c6c79": 4812,
  "696e6b696e67": 4813,
  "2062656c6965766564": 4814,
  "20686f72736573": 4815,
  "4461646479": 4816,
  "20486f707079": 4817,
  "20636865636b6564": 4818,
  "204d616e6479": 4819,
  "20746f7572": 4820,
  "206e6574776f726b": 4821,
  "20636865656b": 4822,
  "20556e646572": 4823,
  "206f66666572": 4824,
  "20656173696c79": 4825,
  "20706c61636564": 4826,
  "73706563": 4827,
  "2073706f7473": 4828,
  "20736e6f7762616c6c": 4829,
  "7765656e": 4830,
  "6d656e": 4831,
  "20656e65726779": 4832,
  "20426565": 4833,
  "20696d6167696e6174696f6e": 4834,
  "20626c75656265727279": 4835,
  "6f7474656e": 4836,
  "206265747765656e": 4837,
  "7370656369616c6c79": 4838,
  "2047696769": 4839,
  "697a6573": 4840,
  "206461697379": 4841,
  "20776176696e67": 4842,
  "7265657a65": 4843,
  "72656174": 4844,
  "2076726f6f6d": 4845,
  "20736f616b": 4846,
  "20736166617269": 4847,
  "2072687974686d": 4848,
  "206d617373616765": 4849,
  "2073746f6d616368": 4850,
  "2062616b696e67": 4851,
  "7175616b65": 4852,
  "206e696768746d617265": 4853,
  "20696e736973746564": 4854,
  "20626c6f77696e67": 4855,
  "20656e7465726564": 4856,
  "4265666f7265": 4857,
  "207374616972": 4858,
  "2070616c6d": 4859,
  "20626561757479": 4860,
  "2074776973746564": 4861,
  "20626f74686572": 4862,
  "2077726974696e67": 4863,
  "2073636f6f70": 4864,
  "207072756e6573": 4865,
  "20627261696e": 4866,
  "20696e67": 4867,
  "69706d656e74": 4868,
  "20706f707079": 4869,
  "2068696c6c73": 4870,
  "6e6f6f6e": 4871,
  "2061667465726e6f6f6e": 4872,
  "2065717569706d656e74": 4873,
  "20657370656369616c6c79": 4874,
  "68657374": 4875,
  "20736972": 4876,
  "20706164": 4877,
  "20536565": 4878,
  "20696e67726564": 4879,
  "2063616c6c73": 4880,
  "20696e6772656469656e74": 4881,
  "20466f78": 4882,
  "2065617274687175616b65": 4883,
  "2069676e6f726564": 4884,
  "20536e6f7779": 4885,
  "206275726e6564": 4886,
  "206e6f626f6479": 4887,
  "6d626c65": 4888,
  "20737479": 4889,
  "617061": 4890,
  "20736577": 4891,
  "20747567": 4892,
  "69737479": 4893,
  "787967656e": 4894,
  "20686561727473": 4895,
  "206c656172": 4896,
  "206c6561726e74": 4897,
  "206c656d6f6e616465": 4898,
  "20696e637265617365": 4899,
  "696c6c6965": 4900,
  "4a656e6e79": 4901,
  "2067617a": 4902,
  "206261636b7061636b": 4903,
  "206d61696c6d616e": 4904,
  "2077686973746c6564": 4905,
  "20706564616c": 4906,
  "20536b": 4907,
  "46726564": 4908,
  "2073686f706b6565706572": 4909,
  "66666963": 4910,
  "207065726d6974": 4911,
  "207472656d626c65": 4912,
  "207975636b79": 4913,
  "616e676573": 4914,
  "206d6f766573": 4915,
  "20696e74726f64756365": 4916,
  "206c656d6f6e73": 4917,
  "206372617368": 4918,
  "206265616e73": 4919,
  "20666c6f61746564": 4920,
  "65646e": 4921,
  "65646e6573646179": 4922,
  "697474656e73": 4923,
  "57656c636f6d65": 4924,
  "20706c616e6e6564": 4925,
  "20737472696b65": 4926,
  "2074726166666963": 4927,
  "20696e636c756465": 4928,
  "20736c6170": 4929,
  "20726163696e67": 4930,
  "204c75636b79": 4931,
  "726573736573": 4932,
  "20776973646f6d": 4933,
  "20707572": 4934,
  "2077616773": 4935,
  "2046696e6e79": 4936,
  "6c61696d6564": 4937,
  "2047656f726765": 4938,
  "206c75636b": 4939,
  "20666f6c6c6f77696e67": 4940,
  "200a": 4941,
  "207072696365": 4942,
  "656374696e67": 4943,
  "206d616d61": 4944,
  "207069746368": 4945,
  "2062656c6f77": 4946,
  "20456c6c79": 4947,
  "2048617665": 4948,
  "4c65": 4949,
  "20776569676874": 4950,
  "206578636c61696d6564": 4951,
  "686f757365": 4952,
  "20627572696564": 4953,
  "20666f6c6c6f7773": 4954,
  "20636f6d66": 4955,
  "207265636f676e697a65": 4956,
  "20696e6772656469656e7473": 4957,
  "2066757274": 4958,
  "7461696e": 4959,
  "2063616e646c6573": 4960,
  "4d696d69": 4961,
  "206d6172626c6573": 4962,
  "7269616765": 4963,
  "756e646179": 4964,
  "656d656d626572": 4965,
  "65726174696f6e": 4966,
  "20416c6578": 4967,
  "206170617274": 4968,
  "205765646e6573646179": 4969,
  "2067726f776c6564": 4970,
  "756374": 4971,
  "205375": 4972,
  "6f726573": 4973,
  "20636f6e66": 4974,
  "207465616368696e67": 4975,
  "20686f706573": 4976,
  "20666f6c646564": 4977,
  "20636c6f73656c79": 4978,
  "2046696e6e": 4979,
  "2057686f": 4980,
  "206865656c": 4981,
  "2053756e646179": 4982,
  "20656e636f7572616765": 4983,
  "205061756c": 4984,
  "204f776c": 4985,
  "207a69677a6167": 4986,
  "2070756c6c696e67": 4987,
  "2064696767": 4988,
  "20626f756e6379": 4989,
  "2066757274686572": 4990,
  "20636865776564": 4991,
  "2064696767696e67": 4992,
  "2077696e6e696e67": 4993,
  "576f6f66": 4994,
  "57697468": 4995,
  "2064726573736573": 4996,
  "20696d616765": 4997,
  "726563": 4998,
  "63657279": 4999,
  "2073686f7574696e67": 5000,
  "2067726f63657279": 5001,
  "20747769737479": 5002,
  "207065616e757473": 5003,
  "2070757a7a6c6573": 5004,
  "6262696e67": 5005,
  "20446f67": 5006,
  "6c6f6f6b": 5007,
  "207363726174": 5008,
  "2063686f726573": 5009,
  "2077686973706572": 5010,
  "204973": 5011,
  "207370696b65": 5012,
  "2046726f676779": 5013,
  "2063617065": 5014,
  "20736e61696c": 5015,
  "2061636f726e73": 5016,
  "20776f726d73": 5017,
  "686f6f64": 5018,
  "20646565706572": 5019,
  "2075726765": 5020,
  "696669": 5021,
  "206578706572": 5022,
  "205768656e65766572": 5023,
  "2054696c6c79": 5024,
  "2053717565616b79": 5025,
  "204772616365": 5026,
  "20706c616e746564": 5027,
  "20617474656e74696f6e": 5028,
  "656374757265": 5029,
  "206578657263697365": 5030,
  "2044616e6e79": 5031,
  "20637562": 5032,
  "206f7065726174696f6e": 5033,
  "20756e64657267726f756e64": 5034,
  "20686f6e": 5035,
  "2061677265": 5036,
  "207175697465": 5037,
  "20637265617475726573": 5038,
  "2073696d70": 5039,
  "45766572796f6e65": 5040,
  "207374727567676c65": 5041,
  "6f72616c": 5042,
  "204d697474656e73": 5043,
  "646479": 5044,
  "20626c6f6f64": 5045,
  "206c656374757265": 5046,
  "2077617368696e67": 5047,
  "2068757274696e67": 5048,
  "2076616e6973686564": 5049,
  "206769667473": 5050,
  "2064726573736564": 5051,
  "20696e7669746174696f6e": 5052,
  "20736f6c766564": 5053,
  "206c69636b73": 5054,
  "20736e7567676c6564": 5055,
  "2053686172696e67": 5056,
  "69707079": 5057,
  "20626c65": 5058,
  "206d61727269616765": 5059,
  "2071756965746c79": 5060,
  "676965": 5061,
  "207761726e696e67": 5062,
  "206a617a7a": 5063,
  "2062726561746865": 5064,
  "72656369": 5065,
  "20656c657068616e7473": 5066,
  "2073697a6573": 5067,
  "206472696564": 5068,
  "2066616c6c656e": 5069,
  "206c616e647363617065": 5070,
  "6f72696573": 5071,
  "20737072696e6b": 5072,
  "206e65696768626f7572": 5073,
  "206d696365": 5074,
  "756573646179": 5075,
  "2061707072656369": 5076,
  "20536f70686965": 5077,
  "204a6f6579": 5078,
  "20e28093": 5079,
  "2065616765726c79": 5080,
  "207361696c696e67": 5081,
  "20436f636f": 5082,
  "20706175736564": 5083,
  "697073": 5084,
  "20636f756e746572": 5085,
  "20476f6f64": 5086,
  "20426f756e6365": 5087,
  "2050656e6e79": 5088,
  "20776f727468": 5089,
  "6c6f6f6b696e67": 5090,
  "20526f636b": 5091,
  "206f787967656e": 5092,
  "42656361757365": 5093,
  "2072656c65617365": 5094,
  "207368696e6564": 5095,
  "4e6f74": 5096,
  "70746564": 5097,
  "2072656163686573": 5098,
  "2062616c616e": 5099,
  "205a617261": 5100,
  "6973736573": 5101,
  "206f68": 5102,
  "206b6973736573": 5103,
  "207374796c65": 5104,
  "20627269636b73": 5105,
  "20706c617973": 5106,
  "20676c6f": 5107,
  "2054756573646179": 5108,
  "206964656173": 5109,
  "736564": 5110,
  "20696e7374": 5111,
  "20776f62": 5112,
  "2066697265776f726b73": 5113,
  "42656c6c61": 5114,
  "6967676c79": 5115,
  "75636b6564": 5116,
  "20736565696e67": 5117,
  "20666c6170": 5118,
  "6f7073": 5119,
  "206163636570746564": 5120,
  "7269676874": 5121,
  "20506970": 5122,
  "546f646179": 5123,
  "20626c696e6b": 5124,
  "6d6d": 5125,
  "20526f73": 5126,
  "207472656d62": 5127,
  "5468657365": 5128,
  "206d75646479": 5129,
  "206d656d6f7279": 5130,
  "206d617272696564": 5131,
  "20746f6d61746f6573": 5132,
  "2065786974": 5133,
  "20416e6e6965": 5134,
  "2077616767696e67": 5135,
  "2066617368": 5136,
  "52656d79": 5137,
  "20436861726c6965": 5138,
  "2077616e6465726564": 5139,
  "756e6174656c79": 5140,
  "697070696e67": 5141,
  "20676c6f766573": 5142,
  "206361707461696e": 5143,
  "2070696c6c6f7773": 5144,
  "2072656365697665": 5145,
  "2072657370": 5146,
  "2050696e6b79": 5147,
  "7261676564": 5148,
  "20647572696e67": 5149,
  "2045766572797468696e67": 5150,
  "65746368": 5151,
  "20776562": 5152,
  "20706574616c73": 5153,
  "2077617465726564": 5154,
  "204576656e7475616c6c79": 5155,
  "207369": 5156,
  "69766564": 5157,
  "206d616e616765": 5158,
  "2070696e63686564": 5159,
  "206272696e6773": 5160,
  "2076616e697368": 5161,
  "2063616b6573": 5162,
  "2066617368696f6e": 5163,
  "20426c756579": 5164,
  "207072696e746572": 5165,
  "2064657374726f796564": 5166,
  "20747265617375726573": 5167,
  "6e6365": 5168,
  "20616c6c6f77": 5169,
  "757073": 5170,
  "206861646e": 5171,
  "20776f727365": 5172,
  "2046696669": 5173,
  "5375727072": 5174,
  "2076656c": 5175,
  "2068697473": 5176,
  "20627572": 5177,
  "7875": 5178,
  "2076656c766574": 5179,
  "20617070656172": 5180,
  "206469736167726565": 5181,
  "646f": 5182,
  "206361746368696e67": 5183,
  "20736361747465726564": 5184,
  "20526f": 5185,
  "206d656d6f72696573": 5186,
  "20736f727473": 5187,
  "2050617061": 5188,
  "2068657273": 5189,
  "2073636f6c646564": 5190,
  "207369676e73": 5191,
  "207065617273": 5192,
  "206f72616e676573": 5193,
  "20626f6e6573": 5194,
  "2072616e67": 5195,
  "20736e6170706564": 5196,
  "2073697473": 5197,
  "207365617473": 5198,
  "757875": 5199,
  "2067617a6564": 5200,
  "20726169736564": 5201,
  "426c": 5202,
  "204d61726961": 5203,
  "207a6970706564": 5204,
  "2070696573": 5205,
  "207072696e7473": 5206,
  "2073686f74": 5207,
  "20736c6964696e67": 5208,
  "20476f64": 5209,
  "2066726f": 5210,
  "20656173696572": 5211,
  "737369626c65": 5212,
  "20736b696c6c73": 5213,
  "20636c696d6273": 5214,
  "20747769726c6564": 5215,
  "63636572": 5216,
  "20626c616e6b657473": 5217,
  "20666f72676f7474656e": 5218,
  "2062616b6564": 5219,
  "6573746572": 5220,
  "59756d": 5221,
  "6573746572646179": 5222,
  "20646966666572656e6365": 5223,
  "6f72746564": 5224,
  "206c757875": 5225,
  "20676f6c64656e": 5226,
  "6973696e67": 5227,
  "206b69747479": 5228,
  "205477": 5229,
  "2063757474696e67": 5230,
  "20736561736f6e": 5231,
  "6167676965": 5232,
  "206e6f7768657265": 5233,
  "2063726f77": 5234,
  "6168": 5235,
  "20736f63636572": 5236,
  "206461726564": 5237,
  "206269746573": 5238,
  "2048656e7279": 5239,
  "204861727279": 5240,
  "616e6e79": 5241,
  "206c756e67": 5242,
  "2063656c65627261746564": 5243,
  "63686f6f": 5244,
  "63686965": 5245,
  "207374726169676874": 5246,
  "20756e6c6f636b6564": 5247,
  "7374657273": 5248,
  "20736f7274696e67": 5249,
  "20636f6c6c6563746564": 5250,
  "20626c656564": 5251,
  "61706564": 5252,
  "64696e67": 5253,
  "2077656c636f6d6564": 5254,
  "2076697369746564": 5255,
  "2073706f6f6e73": 5256,
  "206f757273": 5257,
  "20737469746368": 5258,
  "206a6f6767696e67": 5259,
  "5375727072697365": 5260,
  "6d656469": 5261,
  "20656d6572": 5262,
  "20537061726b": 5263,
  "6d6564696174656c79": 5264,
  "2069736e": 5265,
  "20746f6e67": 5266,
  "207472617665": 5267,
  "2077696e6e6572": 5268,
  "756d626c65": 5269,
  "2073696e6365": 5270,
  "207275696e": 5271,
  "207072657474": 5272,
  "4f6b": 5273,
  "4d6f72616c": 5274,
  "20546f6e79": 5275,
  "206174746163686564": 5276,
  "2077656570696e67": 5277,
  "206d61726368696e67": 5278,
  "206c7578757279": 5279,
  "2073696d706c65": 5280,
  "2045616368": 5281,
  "2073686f756c646e": 5282,
  "2067756573736564": 5283,
  "207a65726f": 5284,
  "2063726561746564": 5285,
  "2073747566666564": 5286,
  "2070657473": 5287,
  "6374696f6e": 5288,
  "207761697374": 5289,
  "2066616d696c": 5290,
  "207572676564": 5291,
  "20626f776564": 5292,
  "2073656c6c696e67": 5293,
  "20666c6f6174696e67": 5294,
  "7272": 5295,
  "20536d697468": 5296,
  "20627965": 5297,
  "204b696e67": 5298,
  "2076696374": 5299,
  "206b696e67646f6d": 5300,
  "206f6c69766573": 5301,
  "206b69636b696e67": 5302,
  "20576967676c79": 5303,
  "2070756e6973686564": 5304,
  "204c697a": 5305,
  "2042616279": 5306,
  "736974": 5307,
  "20746f6573": 5308,
  "206772616e74": 5309,
  "206d7573636c6573": 5310,
  "206a6577656c73": 5311,
  "20526f736965": 5312,
  "2062656473": 5313,
  "206d656c746564": 5314,
  "476f6f64627965": 5315,
  "20736c696365": 5316,
  "206772696e": 5317,
  "20756e6465727374616e64696e67": 5318,
  "20636f6c6c656374696f6e": 5319,
  "20746f7265": 5320,
  "206d65617375726564": 5321,
  "616b6572": 5322,
  "2063726173": 5323,
  "6f6d65646179": 5324,
  "69657273": 5325,
  "2074726170706564": 5326,
  "206c696e6564": 5327,
  "277665": 5328,
  "206163746564": 5329,
  "666f7274756e6174656c79": 5330,
  "20656e636f757261676564": 5331,
  "7661": 5332,
  "2053616e6479": 5333,
  "207265636569766564": 5334,
  "20776166666c6573": 5335,
  "204265666f7265": 5336,
  "2057616c6c79": 5337,
  "2077657374": 5338,
  "206d656f77": 5339,
  "656e7473": 5340,
  "207061747465726e73": 5341,
  "72696e": 5342,
  "696e6f": 5343,
  "2062727573": 5344,
  "65617468": 5345,
  "206d6f75746873": 5346,
  "6b696e73": 5347,
  "2062616e67": 5348,
  "72696e67": 5349,
  "204b617465": 5350,
  "4d656f77": 5351,
  "2070656163686573": 5352,
  "20627265657a65": 5353,
  "61646564": 5354,
  "756e65": 5355,
  "207072696e746564": 5356,
  "20736f6c6469657273": 5357,
  "20736f6d65646179": 5358,
  "20706f7461746f6573": 5359,
  "20707570696c": 5360,
  "756d6573": 5361,
  "204d696c6c6965": 5362,
  "206472696e6b73": 5363,
  "2073686564": 5364,
  "20657870657269656e6365": 5365,
  "2054756e61": 5366,
  "2070726573656e7473": 5367,
  "206669726566": 5368,
  "2052756279": 5369,
  "20737572726f756e64": 5370,
  "206e6f6e65": 5371,
  "6f736564": 5372,
  "20766f69636573": 5373,
  "656570": 5374,
  "206472696e6b696e67": 5375,
  "20556e636c65": 5376,
  "697368696e67": 5377,
  "2072656c61786564": 5378,
  "20766963746f7279": 5379,
  "637573": 5380,
  "207061696e7473": 5381,
  "20627265616b696e67": 5382,
  "657665": 5383,
  "2068757272696564": 5384,
  "697373696f6e": 5385,
  "207477696e6b": 5386,
  "20746f6e677565": 5387,
  "20636f7374756d6573": 5388,
  "20666c6174": 5389,
  "206d656e74696f6e6564": 5390,
  "20626567676564": 5391,
  "2074656173696e67": 5392,
  "2077686973746c696e67": 5393,
  "206665746368": 5394,
  "207065726d697373696f6e": 5395,
  "20736970": 5396,
  "20646973616772656564": 5397,
  "20706561726c": 5398,
  "616b6573": 5399,
  "207374726f": 5400,
  "76657374": 5401,
  "205468657365": 5402,
  "20657363": 5403,
  "20617070726f": 5404,
  "20736b697070696e67": 5405,
  "2066697368696e67": 5406,
  "204d6179": 5407,
  "4c656f": 5408,
  "2068696768657374": 5409,
  "20707261": 5410,
  "2077617463686573": 5411,
  "20736f72746564": 5412,
  "2072696e67696e67": 5413,
  "73686970": 5414,
  "20746f6e69676874": 5415,
  "20426f": 5416,
  "206f70696e": 5417,
  "206c657473": 5418,
  "6963696e67": 5419,
  "205175": 5420,
  "20706572666563746c79": 5421,
  "20736861646f7773": 5422,
  "20696d6d6564696174656c79": 5423,
  "206865726273": 5424,
  "207761726d7468": 5425,
  "2073706974": 5426,
  "2072656d61696e6564": 5427,
  "74686572": 5428,
  "20497473": 5429,
  "77616c6b": 5430,
  "426f626279": 5431,
  "697272696e67": 5432,
  "4a656e": 5433,
  "20736e65616b": 5434,
  "20736978": 5435,
  "206c697073": 5436,
  "206b6e65656c6564": 5437,
  "426c7565": 5438,
  "20636f6e74657374": 5439,
  "20436865": 5440,
  "7574746572": 5441,
  "20636172746f6f6e73": 5442,
  "207369646577616c6b": 5443,
  "20636f6c6f757273": 5444,
  "207374616d7073": 5445,
  "2061676f": 5446,
  "4861": 5447,
  "20546f746f": 5448,
  "20426f6f": 5449,
  "20466f6c6c6f77": 5450,
  "2065617374": 5451,
  "20686561646564": 5452,
  "6f766564": 5453,
  "222c": 5454,
  "20737472616e67": 5455,
  "206c61647962": 5456,
  "20666564": 5457,
  "20737570706f736564": 5458,
  "20726f6f7473": 5459,
  "206c69636b": 5460,
  "206372756e6368": 5461,
  "206d6978696e67": 5462,
  "20776f726b73": 5463,
  "206465636f726174696f6e73": 5464,
  "206d656c74696e67": 5465,
  "206b6e6f776e": 5466,
  "20656d657267656e": 5467,
  "4d616e6479": 5468,
  "20726573746564": 5469,
  "204162": 5470,
  "206c696e6573": 5471,
  "2053757a79": 5472,
  "206c696c79": 5473,
  "204a756c": 5474,
  "20696e737472": 5475,
  "206c616964": 5476,
  "204772": 5477,
  "20737563636565646564": 5478,
  "20636f6e6573": 5479,
  "20776967676c65": 5480,
  "657479": 5481,
  "73696e67": 5482,
  "2073686f636b": 5483,
  "2073657474696e67": 5484,
  "20536c6f77": 5485,
  "2073747564696564": 5486,
  "20737472616e67657273": 5487,
  "20526f636b79": 5488,
  "5265616c6c79": 5489,
  "207477696773": 5490,
  "2062726964": 5491,
  "20746865697273": 5492,
  "204472": 5493,
  "206769726c73": 5494,
  "626f6f": 5495,
  "21222c": 5496,
  "2073637265616d73": 5497,
  "206c616e6473": 5498,
  "206f726465726564": 5499,
  "207374697272696e67": 5500,
  "206d6f6d656e7473": 5501,
  "206669656c6473": 5502,
  "20616c7269676874": 5503,
  "20737465616c696e67": 5504,
  "646564": 5505,
  "416e6479": 5506,
  "2072756c": 5507,
  "2062726176656c79": 5508,
  "61766964": 5509,
  "20426f7468": 5510,
  "206d6973746572": 5511,
  "2127": 5512,
  "20696e76657374": 5513,
  "20736372617463686564": 5514,
  "20706c617974696d65": 5515,
  "20726970706564": 5516,
  "20696e766573746967": 5517,
  "207475636b6564": 5518,
  "2072657374696e67": 5519,
  "206275726e696e67": 5520,
  "6973686573": 5521,
  "20436c617261": 5522,
  "20436869636b79": 5523,
  "2062726964676573": 5524,
  "206f666669636572": 5525,
  "706c65617365": 5526,
  "53616d6d79": 5527,
  "42697264": 5528,
  "6162696573": 5529,
  "20736574746c6564": 5530,
  "206d617463686564": 5531,
  "206163686965": 5532,
  "20746578": 5533,
  "2074657874757265": 5534,
  "4861707079": 5535,
  "207761697473": 5536,
  "207475726e696e67": 5537,
  "20536b79": 5538,
  "5065746572": 5539,
  "6f726564": 5540,
  "207472656d626c696e67": 5541,
  "697374656e": 5542,
  "206e61696c73": 5543,
  "61746965": 5544,
  "206d756666696e73": 5545,
  "20536f6d656f6e65": 5546,
  "696473": 5547,
  "2065736361706564": 5548,
  "204a616d6573": 5549,
  "2070696c6573": 5550,
  "20696e766573746967617465": 5551,
  "6f73697479": 5552,
  "2062726f6f6d": 5553,
  "206c616479627567": 5554,
  "20736f7265": 5555,
  "20506570706572": 5556,
  "2061707072656369617465": 5557,
  "2061646d6972": 5558,
  "20746872656174": 5559,
  "20626162696573": 5560,
  "2073696c656e6365": 5561,
  "2073697374657273": 5562,
  "20656d657267656e6379": 5563,
  "2061726561": 5564,
  "69646573": 5565,
  "2064616473": 5566,
  "20616e7377657273": 5567,
  "2070757070": 5568,
  "206b657973": 5569,
  "2063686577696e67": 5570,
  "20736c6170706564": 5571,
  "2077697a": 5572,
  "20696d706f7274616e6365": 5573,
  "426f6f": 5574,
  "20736572766564": 5575,
  "20486f70": 5576,
  "20736166657479": 5577,
  "697a696e67": 5578,
  "4275": 5579,
  "576f756c64": 5580,
  "20737061726b6c65": 5581,
  "20746f756368696e67": 5582,
  "204c61746572": 5583,
  "20736f61726564": 5584,
  "696761696c": 5585,
  "2073696e6773": 5586,
  "2068656e": 5587,
  "616c6c656e": 5588,
  "456c6c61": 5589,
  "62657273": 5590,
  "616e746c79": 5591,
  "4d6f6d6f": 5592,
  "2044696e6f": 5593,
  "206b65657073": 5594,
  "20616d617a656d656e74": 5595,
  "206368616c6c656e": 5596,
  "207477696e": 5597,
  "206865736974": 5598,
  "2072657665616c6564": 5599,
  "616e6e61": 5600,
  "616368656c": 5601,
  "206974656d": 5602,
  "2064697265": 5603,
  "20736f616b6564": 5604,
  "7a696e67": 5605,
  "2077726974": 5606,
  "20666f6f6473": 5607,
  "207269646573": 5608,
  "2064696e6f7361757273": 5609,
  "207265636f72646564": 5610,
  "207469636b6c65": 5611,
  "20696e6368": 5612,
  "205a69677a6167": 5613,
  "204d65": 5614,
  "2077697a617264": 5615,
  "20766574": 5616,
  "207472697073": 5617,
  "20676c6f776564": 5618,
  "20416e": 5619,
  "2046726f67": 5620,
  "4d6d6d": 5621,
  "206869": 5622,
  "206265616d6564": 5623,
  "20717561636b": 5624,
  "206375726c6564": 5625,
  "206861746564": 5626,
  "2077696e6b": 5627,
  "2073686f7070696e67": 5628,
  "2065617473": 5629,
  "4576656e7475616c6c79": 5630,
  "20427567": 5631,
  "2070726169736564": 5632,
  "20776f6f64656e": 5633,
  "206272696e67696e67": 5634,
  "206d697474656e73": 5635,
  "207374756479696e67": 5636,
  "20677579": 5637,
  "2062727573686573": 5638,
  "20737061636573686970": 5639,
  "2067757374": 5640,
  "20637261776c696e67": 5641,
  "20536f6d657468696e67": 5642,
  "436174": 5643,
  "2072756c6572": 5644,
  "20666c6176": 5645,
  "20646f776e737461697273": 5646,
  "2073686f6f74696e67": 5647,
  "20746173746573": 5648,
  "206e617070696e67": 5649,
  "20737072696e6b6c6573": 5650,
  "206d61726b73": 5651,
  "20637564646c6564": 5652,
  "20646f74": 5653,
  "68656c6c6f": 5654,
  "706c617368": 5655,
  "20667574": 5656,
  "616c6573": 5657,
  "61766564": 5658,
  "20667574757265": 5659,
  "206d6f6e7374657273": 5660,
  "20636f6c6c656374696e67": 5661,
  "206d6561737572696e67": 5662,
  "204861707079": 5663,
  "272e": 5664,
  "2066616d696c696573": 5665,
  "204f7574": 5666,
  "204669727374": 5667,
  "204d6f": 5668,
  "20746872696c6c": 5669,
  "206f6174": 5670,
  "69727473": 5671,
  "20726573756c74": 5672,
  "4a616b65": 5673,
  "20617070726f6163686564": 5674,
  "20526162626974": 5675,
  "206372756e636879": 5676,
  "616374": 5677,
  "556e": 5678,
  "2072656d656d": 5679,
  "20626c656564696e67": 5680,
  "2072656d656d62657273": 5681,
  "206e69636572": 5682,
  "2062656174": 5683,
  "20736e65616b79": 5684,
  "20646973747572626564": 5685,
  "206c6561646572": 5686,
  "2073636172696e67": 5687,
  "4f72": 5688,
  "68696e64": 5689,
  "207065656c": 5690,
  "20486f7065": 5691,
  "20666972656d656e": 5692,
  "206e65696768626f72686f6f64": 5693,
  "2053746172": 5694,
  "2067726579": 5695,
  "204e6f74": 5696,
  "206d6f74696f6e": 5697,
  "206e6f6f6e": 5698,
  "20706f737369626c65": 5699,
  "456d696c79": 5700,
  "536f6d6574": 5701,
  "2061706f6c6f67697a6564": 5702,
  "2077656967686564": 5703,
  "756573": 5704,
  "20446964": 5705,
  "207469636b657473": 5706,
  "436c": 5707,
  "206e617073": 5708,
  "206c6f6f7365": 5709,
  "207072696465": 5710,
  "20796f757468": 5711,
  "207377696d73": 5712,
  "706564": 5713,
  "20737472696e6773": 5714,
  "207265636f676e697a6564": 5715,
  "20736972656e": 5716,
  "20706f6b696e67": 5717,
  "66696564": 5718,
  "20486f": 5719,
  "63696f7573": 5720,
  "6861": 5721,
  "656c766574": 5722,
  "20747269636b6564": 5723,
  "20776f6e64657273": 5724,
  "206761696e6564": 5725,
  "2077616e74696e67": 5726,
  "2063726173686564": 5727,
  "206f6265": 5728,
  "20736565736177": 5729,
  "20776f726b6572": 5730,
  "756e6e696573": 5731,
  "6c73": 5732,
  "6f6d696e67": 5733,
  "206472617773": 5734,
  "2073636f6f706564": 5735,
  "2e27": 5736,
  "207a6f6f6d696e67": 5737,
  "206f70696e696f6e": 5738,
  "2079656c6c696e67": 5739,
  "207072657061726564": 5740,
  "206772696e6e6564": 5741,
  "20536c6f776c79": 5742,
  "20617765": 5743,
  "20706f656d73": 5744,
  "20646f676779": 5745,
  "20616374696e67": 5746,
  "2042656570": 5747,
  "206861707069657374": 5748,
  "2063686566": 5749,
  "20736e65616b6564": 5750,
  "20726573706f6e73": 5751,
  "20656666": 5752,
  "20416c77617973": 5753,
  "204c697a7a79": 5754,
  "206f776e6564": 5755,
  "2062756e6e696573": 5756,
  "20616e7974696d65": 5757,
  "2073747275636b": 5758,
  "20706564616c73": 5759,
  "6f7973": 5760,
  "206b6e656c74": 5761,
  "656e61": 5762,
  "4f6c6c6965": 5763,
  "2073656372657473": 5764,
  "207061757365": 5765,
  "206465636f7261746564": 5766,
  "20686f726e73": 5767,
  "2061677265656d656e74": 5768,
  "20537175": 5769,
  "69646564": 5770,
  "2066726f7374": 5771,
  "2074616c6c657374": 5772,
  "206f626579": 5773,
  "52656d656d626572": 5774,
  "7269656e6473": 5775,
  "6f676f": 5776,
  "2053746f70": 5777,
  "48617665": 5778,
  "2064656369646573": 5779,
  "204f6e6365": 5780,
  "2062656861766564": 5781,
  "20747567676564": 5782,
  "207369646573": 5783,
  "20776f6f66": 5784,
  "20736c696d": 5785,
  "7a656e": 5786,
  "20676f6f646e69676874": 5787,
  "206b6565706572": 5788,
  "20737061726b6c696e67": 5789,
  "2063686972706564": 5790,
  "2070726563696f7573": 5791,
  "6d6f74686572": 5792,
  "6c696572": 5793,
  "69656e": 5794,
  "5472": 5795,
  "207265706561746564": 5796,
  "20636c617073": 5797,
  "696e6479": 5798,
  "6166666573": 5799,
  "20736e6f7762616c6c73": 5800,
  "20636f6e7461696e": 5801,
  "7564": 5802,
  "7273": 5803,
  "20526179": 5804,
  "206f757273656c766573": 5805,
  "616c6c6f77": 5806,
  "206769726166666573": 5807,
  "2062616c616e63696e67": 5808,
  "206b696e646c79": 5809,
  "207370656e64696e67": 5810,
  "20777269746573": 5811,
  "617973": 5812,
  "7070657273": 5813,
  "204c696b65": 5814,
  "6f6d6173": 5815,
  "2070726f70": 5816,
  "20686973736564": 5817,
  "4669727374": 5818,
  "2066726f7a656e": 5819,
  "2066726f7374696e67": 5820,
  "206566666f7274": 5821,
  "2062757a7a696e67": 5822,
  "207374727567676c6564": 5823,
  "6f68": 5824,
  "205374657665": 5825,
  "2061646d6972696e67": 5826,
  "2072656c65": 5827,
  "69676779": 5828,
  "207377656574696573": 5829,
  "2056656c766574": 5830,
  "20736c696d79": 5831,
  "2062727573686564": 5832,
  "20626c6f6f6d6564": 5833,
  "5375736965": 5834,
  "20416d": 5835,
  "20706f6c6973686564": 5836,
  "205a6f65": 5837,
  "61727468": 5838,
  "616e746564": 5839,
  "20636f6d6679": 5840,
  "20626f6f": 5841,
  "2073746179696e67": 5842,
  "2072756262696e67": 5843,
  "4475636b79": 5844,
  "20726f636b696e67": 5845,
  "20706f636b657473": 5846,
  "20746872696c6c6564": 5847,
  "20626573696465": 5848,
  "20636f6d706c65": 5849,
  "2041756e74": 5850,
  "204d6167676965": 5851,
  "4168": 5852,
  "206569676874": 5853,
  "75727279": 5854,
  "6973646f6d": 5855,
  "206d616368696e6573": 5856,
  "206561726c696572": 5857,
  "20796573746572646179": 5858,
  "207365656d73": 5859,
  "2072757374": 5860,
  "204b656570": 5861,
  "5370": 5862,
  "2074726176656c6564": 5863,
  "20666f6c64696e67": 5864,
  "20626f6f6d": 5865,
  "20637261636b6564": 5866,
  "6974696573": 5867,
  "2068756767696e67": 5868,
  "207261646973686573": 5869,
  "20537469746368": 5870,
  "206f70656e696e67": 5871,
  "206c6f76696e67": 5872,
  "20636972637573": 5873,
  "20737572726f756e646564": 5874,
  "20637572696f73697479": 5875,
  "2052616368656c": 5876,
  "207370726179696e67": 5877,
  "2064656d616e646564": 5878,
  "207061696e74696e6773": 5879,
  "616d6965": 5880,
  "20477265656e": 5881,
  "2072656d6f766564": 5882,
  "2067617a65": 5883,
  "20686f6e6b": 5884,
  "20706562626c6573": 5885,
  "207a6f6f6b6565706572": 5886,
  "20686172646c79": 5887,
  "2063617463686573": 5888,
  "656464696e67": 5889,
  "207374696e67": 5890,
  "2073747269706573": 5891,
  "20706f77657273": 5892,
  "206c6f61646564": 5893,
  "205069707061": 5894,
  "536f6d6574696d6573": 5895,
  "2073706c6173686573": 5896,
  "20706f7473": 5897,
  "20706574746564": 5898,
  "206d61746368696e67": 5899,
  "204461766964": 5900,
  "5468616e6b73": 5901,
  "20746f7373": 5902,
  "207374617265": 5903,
  "2062656c6c79": 5904,
  "59756d6d79": 5905,
  "696262": 5906,
  "207768617465766572": 5907,
  "2061706f6c6f67697a65": 5908,
  "20726f636b6564": 5909,
  "20636f6d666f72746564": 5910,
  "2042726565": 5911,
  "206465636973696f6e": 5912,
  "20726962626f6e73": 5913,
  "204a6f79": 5914,
  "20426972646965": 5915,
  "65726e": 5916,
  "207374727567676c696e67": 5917,
  "206578706563746564": 5918,
  "206465736572": 5919,
  "207374656570": 5920,
  "7768": 5921,
  "2070726f746563746564": 5922,
  "206e65696768626f7273": 5923,
  "20736d696c6579": 5924,
  "20636861736573": 5925,
  "447572696e67": 5926,
  "206772616e746564": 5927,
  "206372756d62": 5928,
  "204d6174": 5929,
  "20707572726564": 5930,
  "20646976696e67": 5931,
  "207361646e657373": 5932,
  "576869736b657273": 5933,
  "206f7267616e697a696e67": 5934,
  "6c6f77657273": 5935,
  "206561676c65": 5936,
  "206865726f6573": 5937,
  "20646970706564": 5938,
  "2073756e6c69676874": 5939,
  "206c696564": 5940,
  "2070617374656c73": 5941,
  "204672616e6b": 5942,
  "4578": 5943,
  "207361666572": 5944,
  "20726f616473": 5945,
  "2073637275": 5946,
  "20617267756564": 5947,
  "204d696c6c79": 5948,
  "20676f616c73": 5949,
  "205761746572": 5950,
  "20646973636f76657279": 5951,
  "204162696761696c": 5952,
  "2076696c6c6167": 5953,
  "20706565726564": 5954,
  "526f": 5955,
  "20426f756e6379": 5956,
  "757365": 5957,
  "616e61": 5958,
  "6c6f65": 5959,
  "2074696d": 5960,
  "20647261676f6e73": 5961,
  "206275696c64696e6773": 5962,
  "206275636b657473": 5963,
  "2070617274696573": 5964,
  "206265617264": 5965,
  "2077656464696e67": 5966,
  "526578": 5967,
  "20666c7574746572": 5968,
  "20706c616e657473": 5969,
  "20616e6e": 5970,
  "20526f626279": 5971,
  "20706f6c697368696e67": 5972,
  "2066617363": 5973,
  "697261": 5974,
  "2072656c6561736564": 5975,
  "20436872": 5976,
  "206372616273": 5977,
  "20476f676f": 5978,
  "207461696c73": 5979,
  "205761746368": 5980,
  "207361757361676573": 5981,
  "204a75": 5982,
  "2061726775": 5983,
  "20636f6e74726f": 5984,
  "20626f74746c6573": 5985,
  "20776967676c6564": 5986,
  "20746561736564": 5987,
  "756b65": 5988,
  "2061726775696e67": 5989,
  "20736c6564": 5990,
  "2064726167676564": 5991,
  "2070616464": 5992,
  "20436172": 5993,
  "20726f6172696e67": 5994,
  "20636c656172696e67": 5995,
  "20736869727473": 5996,
  "206d6f76696573": 5997,
  "20676174686572696e67": 5998,
  "20616972706c": 5999,
  "20776964": 6000,
  "6a6f796564": 6001,
  "2074656163686573": 6002,
  "2073706964657273": 6003,
  "206c696d6573": 6004,
  "2052656d656d626572": 6005,
  "2044617265": 6006,
  "206f7665726a6f796564": 6007,
  "2061637475616c6c79": 6008,
  "207369676873": 6009,
  "20636f6e74696e7565": 6010,
  "20637564646c65": 6011,
  "20736f6172696e67": 6012,
  "20736d616c6c657374": 6013,
  "204a657373": 6014,
  "20647269766573": 6015,
  "20737061726b6c6573": 6016,
  "20726970": 6017,
  "2073697475": 6018,
  "206375626573": 6019,
  "20726566726573": 6020,
  "2074616c656e74": 6021,
  "206368616c6c656e6765": 6022,
  "204f6c6c79": 6023,
  "206772616e646d6f74686572": 6024,
  "2053706c617368": 6025,
  "20706f7572696e67": 6026,
  "756d6d": 6027,
  "2070726574656e6473": 6028,
  "2066617363696e": 6029,
  "2063757473": 6030,
  "207175617272656c696e67": 6031,
  "2070657070657273": 6032,
  "2062616e6b": 6033,
  "207368697665726564": 6034,
  "206d616e65": 6035,
  "206475737479": 6036,
  "6c6579": 6037,
  "20776f6e646572696e67": 6038,
  "2076696c6c6167657273": 6039,
  "2073747265746368696e67": 6040,
  "6e6a6f79": 6041,
  "6962": 6042,
  "207765656b73": 6043,
  "207768657265766572": 6044,
  "206461726b6572": 6045,
  "6a616d": 6046,
  "54696e79": 6047,
  "73736573": 6048,
  "2058": 6049,
  "2072696e6773": 6050,
  "206f6e7761726473": 6051,
  "204b61746965": 6052,
  "20756e69746564": 6053,
  "4163686f6f": 6054,
  "2062656164": 6055,
  "204576657279646179": 6056,
  "204265696e67": 6057,
  "20707265747469657374": 6058,
  "4a6f686e6e79": 6059,
  "2063617574": 6060,
  "207265616c697a65": 6061,
  "20636f6d70616e79": 6062,
  "2070656e6775696e73": 6063,
  "616e6e6168": 6064,
  "4c756e61": 6065,
  "4672": 6066,
  "20537072696e67": 6067,
  "2062656474696d65": 6068,
  "20636f6d706c65746564": 6069,
  "20576973646f6d": 6070,
  "204c65617665": 6071,
  "e2809d2e": 6072,
  "206b6e6967687473": 6073,
  "20666c616773": 6074,
  "204a65": 6075,
  "2042656361757365": 6076,
  "20706c6179726f6f6d": 6077,
  "205072696e": 6078,
  "20616374696f6e73": 6079,
  "205a65726f": 6080,
  "206c6561726e73": 6081,
  "20676f7474656e": 6082,
  "2070617469656e6365": 6083,
  "696e6461": 6084,
  "64616d": 6085,
  "207368727567": 6086,
  "206b69746573": 6087,
  "20726573706f6e7369626c65": 6088,
  "206665617273": 6089,
  "2064657374696e6174696f6e": 6090,
  "207769726573": 6091,
  "207265706c79": 6092,
  "207772697374": 6093,
  "2064616d": 6094,
  "617773": 6095,
  "207061636b696e67": 6096,
  "206d6f756e7461696e73": 6097,
  "206661756c74": 6098,
  "206170706c6175646564": 6099,
  "207363727562626564": 6100,
  "206d61": 6101,
  "206372657074": 6102,
  "20417661": 6103,
  "5568": 6104,
  "204561727468": 6105,
  "207361746973": 6106,
  "207468697264": 6107,
  "2070686f74": 6108,
  "2070656e63696c73": 6109,
  "2077696e73": 6110,
  "20737469636b696e67": 6111,
  "2062616b6572": 6112,
  "207669736974696e67": 6113,
  "20776f756e64": 6114,
  "2075736573": 6115,
  "2070656173": 6116,
  "2072656d696e646572": 6117,
  "20636f6e74726f6c": 6118,
  "6173686564": 6119,
  "4772616e647061": 6120,
  "206a6f6b696e67": 6121,
  "206177616b65": 6122,
  "20696e737472756374": 6123,
  "2073746172696e67": 6124,
  "206865616c6564": 6125,
  "20507574": 6126,
  "2068697474696e67": 6127,
  "2046697368": 6128,
  "2073637265616d696e67": 6129,
  "20626567696e": 6130,
  "526f62": 6131,
  "75636b696c79": 6132,
  "20467269656e6473": 6133,
  "204d6f6f": 6134,
  "69636f726e": 6135,
  "2068656c6d657473": 6136,
  "656e7479": 6137,
  "20756e69636f726e": 6138,
  "6c6572": 6139,
  "7365656b": 6140,
  "20746f77656c73": 6141,
  "53696c6c79": 6142,
  "204c6f75": 6143,
  "206368697073": 6144,
  "696361": 6145,
  "206372656174696f6e": 6146,
  "20776173746564": 6147,
  "626965": 6148,
  "4d6172": 6149,
  "20426568696e64": 6150,
  "6c61697265": 6151,
  "206d61736b73": 6152,
  "206974656d73": 6153,
  "20666f726769": 6154,
  "20666972656669676874": 6155,
  "206f7574646f": 6156,
  "206c6f6c6c69706f7073": 6157,
  "5761746368": 6158,
  "2068656176": 6159,
  "2067756e73": 6160,
  "2064696564": 6161,
  "204869707079": 6162,
  "2073656173": 6163,
  "20676c6974746572": 6164,
  "7564646c6573": 6165,
  "20617272697665": 6166,
  "20776572656e": 6167,
  "2073746f6c65": 6168,
  "207363616c6573": 6169,
  "2070657263686564": 6170,
  "206163636f6d": 6171,
  "206c6f6773": 6172,
  "2061636869657665": 6173,
  "646965": 6174,
  "2070726163746963696e67": 6175,
  "696e696e67": 6176,
  "2077686f7365": 6177,
  "53746179": 6178,
  "2070756d706b696e73": 6179,
  "20696e737472756374696f6e73": 6180,
  "2073776f6f70": 6181,
  "20626174746572696573": 6182,
  "2063616e64696573": 6183,
  "20616772656573": 6184,
  "2070726f6a656374": 6185,
  "20736e616b6573": 6186,
  "206368697270696e67": 6187,
  "42656e6e79": 6188,
  "207368656c766573": 6189,
  "2070726f74656374696e67": 6190,
  "207061726b6564": 6191,
  "206578616374": 6192,
  "20437261": 6193,
  "2070617469656e746c79": 6194,
  "206163746976": 6195,
  "20766964656f73": 6196,
  "2073686f756c64657273": 6197,
  "20626c6f7773": 6198,
  "686565": 6199,
  "466f": 6200,
  "2070726f6d69736573": 6201,
  "676f": 6202,
  "2064656e74": 6203,
  "7573616e": 6204,
  "75657374": 6205,
  "6e657273": 6206,
  "6a616d6173": 6207,
  "206578616d696e6564": 6208,
  "20616972706c616e65": 6209,
  "446f676779": 6210,
  "20726f736573": 6211,
  "206163636f6d706c": 6212,
  "207461736b73": 6213,
  "44617665": 6214,
  "20486f6f74": 6215,
  "506f707079": 6216,
  "20426f70": 6217,
  "42756e6e79": 6218,
  "206265616473": 6219,
  "20626f776c73": 6220,
  "206372756d6273": 6221,
  "7a6573": 6222,
  "206c697374656e73": 6223,
  "204c6f7665": 6224,
  "204361747479": 6225,
  "2042726f776e6965": 6226,
  "50657465": 6227,
  "204f6c": 6228,
  "20646f6c7068696e73": 6229,
  "20636f756768": 6230,
  "2062756e6368": 6231,
  "206775657374": 6232,
  "63616b6573": 6233,
  "20726571756573746564": 6234,
  "2072656d6f7465": 6235,
  "20696d70726f766564": 6236,
  "616e7461": 6237,
  "207265616368696e67": 6238,
  "206272616e64": 6239,
  "204a616e": 6240,
  "61796c61": 6241,
  "20616c69656e": 6242,
  "20427965": 6243,
  "69726d": 6244,
  "20636f7079": 6245,
  "2053756e": 6246,
  "206368656572696e67": 6247,
  "2070686f746f73": 6248,
  "204a756c6965": 6249,
  "2043686577": 6250,
  "426164": 6251,
  "20426c696e6b": 6252,
  "54696d65": 6253,
  "2063616e73": 6254,
  "20437564646c6573": 6255,
  "2074696d6572": 6256,
  "204279": 6257,
  "207265706c61636564": 6258,
  "61746879": 6259,
  "20776f726b657273": 6260,
  "20737465726e": 6261,
  "20456e6a6f79": 6262,
  "6173746572": 6263,
  "206e656974686572": 6264,
  "4d696b65": 6265,
  "2070617373696e67": 6266,
  "206d6973736573": 6267,
  "206375727461696e73": 6268,
  "20636f6e666c": 6269,
  "436869727079": 6270,
  "207261696e626f7773": 6271,
  "2072756273": 6272,
  "47656f726765": 6273,
  "756374616e746c79": 6274,
  "20726f6c6c73": 6275,
  "20706174746564": 6276,
  "696c6f": 6277,
  "2070616a616d6173": 6278,
  "206f7574646f6f7273": 6279,
  "65736f6d65": 6280,
  "64696573": 6281,
  "20636f6d706c61696e696e67": 6282,
  "20537175697272656c": 6283,
  "4c6f6c61": 6284,
  "52756e": 6285,
  "20707570706574": 6286,
  "205072696e63657373": 6287,
  "20636c6f736573": 6288,
  "2062656e65617468": 6289,
  "206c6170": 6290,
  "206472756d73": 6291,
  "2074756e65": 6292,
  "2042657468": 6293,
  "204d6f757365": 6294,
  "2066696c6c696e67": 6295,
  "4d697373": 6296,
  "616e676c6564": 6297,
  "20726566757365": 6298,
  "20536f727279": 6299,
  "207377656174": 6300,
  "206661636564": 6301,
  "2e2e2e": 6302,
  "20736576656e": 6303,
  "2062616c616e636564": 6304,
  "2072657363756564": 6305,
  "6e65617468": 6306,
  "626c": 6307,
  "20717561636b6564": 6308,
  "2041626279": 6309,
  "5061756c": 6310,
  "6973746c65": 6311,
  "20617765736f6d65": 6312,
  "2031": 6313,
  "206d697373696f6e": 6314,
  "20486f7765766572": 6315,
  "2067757973": 6316,
  "20636f6e666c696374": 6317,
  "2063617574696f7573": 6318,
  "2076656e74": 6319,
  "206f62736572766564": 6320,
  "206361757365": 6321,
  "20696e74726f647563": 6322,
  "2054686f6d6173": 6323,
  "207061737472696573": 6324,
  "6e6965": 6325,
  "2020": 6326,
  "204f7572": 6327,
  "2065786163746c79": 6328,
  "20646f63746f7273": 6329,
  "2072756c65": 6330,
  "206265636f6d696e67": 6331,
  "20706f6c6963656d616e": 6332,
  "206d6573": 6333,
  "756c79": 6334,
  "20726f636b657473": 6335,
  "796f75": 6336,
  "20596573": 6337,
  "20446f74": 6338,
  "2066616972696573": 6339,
  "6c6179": 6340,
  "20706f7574": 6341,
  "416e": 6342,
  "20696e73697374": 6343,
  "20626c6f6f6d696e67": 6344,
  "2074726163746f72": 6345,
  "2066617274686572": 6346,
  "20536164": 6347,
  "617669": 6348,
  "4f6f7073": 6349,
  "4772656174": 6350,
  "2072656d656d626572696e67": 6351,
  "20696e636c75646564": 6352,
  "206375726c79": 6353,
  "5a6f6f6d": 6354,
  "46696e65": 6355,
  "207465616d776f726b": 6356,
  "7a6965": 6357,
  "2066617363696e61746564": 6358,
  "20776f62626c6564": 6359,
  "20736c616d": 6360,
  "207472756c79": 6361,
  "2068656c70657273": 6362,
  "20736967687473": 6363,
  "20706164646c65": 6364,
  "207374756d626c65": 6365,
  "206669726d": 6366,
  "48656e7279": 6367,
  "204a696c6c79": 6368,
  "61636f62": 6369,
  "20636175736564": 6370,
  "20707261796572": 6371,
  "2073706f6e67": 6372,
  "207265636f7264696e67": 6373,
  "6b656c6c79": 6374,
  "616973": 6375,
  "20747261646564": 6376,
  "207374617266697368": 6377,
  "20737570706c696573": 6378,
  "207468726f": 6379,
  "20706f696e7479": 6380,
  "20736974756174696f6e": 6381,
  "20696e766974696e67": 6382,
  "656168": 6383,
  "67657273": 6384,
  "206e65696768626f7572686f6f64": 6385,
  "206576657279646179": 6386,
  "206f726e616d656e7473": 6387,
  "20416c6c79": 6388,
  "696e6b6c65": 6389,
  "2076616c756564": 6390,
  "20616464696e67": 6391,
  "536f6d65": 6392,
  "2072656c756374616e746c79": 6393,
  "20646f7473": 6394,
  "207374617973": 6395,
  "207461626c6573": 6396,
  "207072657474696572": 6397,
  "2062617265": 6398,
  "20646573657274": 6399,
  "20736e6f776d656e": 6400,
  "20737465616479": 6401,
  "206d696e6572616c73": 6402,
  "617261776179": 6403,
  "2074686f726e": 6404,
  "6f6479": 6405,
  "20617374": 6406,
  "20676c6173736573": 6407,
  "2066617261776179": 6408,
  "20476574": 6409,
  "20466f7879": 6410,
  "2073776f6f706564": 6411,
  "2057656c636f6d65": 6412,
  "2054776f": 6413,
  "2053757265": 6414,
  "20756e66": 6415,
  "20666f726b73": 6416,
  "20757375616c6c79": 6417,
  "20757375616c": 6418,
  "506f6c6c79": 6419,
  "20646172": 6420,
  "204a616d6965": 6421,
  "2077696e6b6564": 6422,
  "20736e65657a696e67": 6423,
  "20736f6c7574": 6424,
  "206c6f6164696e67": 6425,
  "2073706f6e6765": 6426,
  "20517569636b": 6427,
  "20696e7365637473": 6428,
  "2070616e73": 6429,
  "446f67": 6430,
  "20736f62626564": 6431,
  "2053616e7461": 6432,
  "4a616d6573": 6433,
  "2067726f776c696e67": 6434,
  "736d": 6435,
  "6172746572": 6436,
  "207468726f6174": 6437,
  "2043686c6f65": 6438,
  "206e6f736573": 6439,
  "204a6f7368": 6440,
  "2044697a7a79": 6441,
  "2073636172766573": 6442,
  "20636f6e666964656e74": 6443,
  "20796f757273656c766573": 6444,
  "2057616e74": 6445,
  "6167756c6c": 6446,
  "20686f6d65776f726b": 6447,
  "2073757065726865726f6573": 6448,
  "2053746179": 6449,
  "4a6f6579": 6450,
  "20736d6172746572": 6451,
  "2077696e6479": 6452,
  "206c696272617269616e": 6453,
  "54696e61": 6454,
  "204b696473": 6455,
  "2067656d73": 6456,
  "44617973": 6457,
  "6f7261": 6458,
  "20756e6465726e65617468": 6459,
  "206b69636b73": 6460,
  "206b6e6f776c6564": 6461,
  "206974636879": 6462,
  "206b6e6f776c65646765": 6463,
  "206a61636b657473": 6464,
  "20536b656c6c79": 6465,
  "20466f72": 6466,
  "2073757266616365": 6467,
  "20756e746965": 6468,
  "20636f6d6d": 6469,
  "204475636b": 6470,
  "207072696e636573736573": 6471,
  "2e2e2e22": 6472,
  "54686f7365": 6473,
  "69646f": 6474,
  "656564": 6475,
  "486f6c64": 6476,
  "59656168": 6477,
  "636f6f6e": 6478,
  "2073717561726573": 6479,
  "2048656e6e79": 6480,
  "207761726e696e6773": 6481,
  "20676967676c696e67": 6482,
  "696172": 6483,
  "207265616473": 6484,
  "76696e": 6485,
  "4f7572": 6486,
  "2063686f6f": 6487,
  "736f6e": 6488,
  "20796f756e676572": 6489,
  "20636c6f776e73": 6490,
  "204d6978": 6491,
  "546f6279": 6492,
  "20726f706573": 6493,
  "20626974696e67": 6494,
  "2063726f7764": 6495,
  "20556e666f7274756e6174656c79": 6496,
  "70697465": 6497,
  "44616e6e79": 6498,
  "54727565": 6499,
  "2073656167756c6c": 6500,
  "20706164646c6564": 6501,
  "207765617273": 6502,
  "2064656c697665726564": 6503,
  "204d6f6e": 6504,
  "20747769726c": 6505,
  "206f6e696f6e73": 6506,
  "2062757a7a6564": 6507,
  "20636f6d706c61696e6564": 6508,
  "2062756d7079": 6509,
  "207374656d": 6510,
  "4577": 6511,
  "207069676779": 6512,
  "4d7273": 6513,
  "20416e6e65": 6514,
  "20646972656374696f6e": 6515,
  "6f756368": 6516,
  "206469766564": 6517,
  "526f6172": 6518,
  "2074616e676c6564": 6519,
  "2073746172746c6564": 6520,
  "756c7473": 6521,
  "206c65616e696e67": 6522,
  "62626965": 6523,
  "20416e74": 6524,
  "204a6f6e6573": 6525,
  "206261646765": 6526,
  "20506f": 6527,
  "4772616365": 6528,
  "20756e70": 6529,
  "206465616c": 6530,
  "74686f756768": 6531,
  "416e6e6965": 6532,
  "20766f776564": 6533,
  "206e61706b696e73": 6534,
  "616e6573": 6535,
  "207469636b6c6564": 6536,
  "207269736b": 6537,
  "20636f76657273": 6538,
  "20706563": 6539,
  "536868": 6540,
  "2079656c6c73": 6541,
  "20736174697366696564": 6542,
  "696e74": 6543,
  "206b6e6f636b73": 6544,
  "20726566726573686564": 6545,
  "74756365": 6546,
  "205363": 6547,
  "63757365": 6548,
  "20636f7573": 6549,
  "206172726f7773": 6550,
  "4d6167676965": 6551,
  "2057686973746c65": 6552,
  "5065": 6553,
  "207769706573": 6554,
  "20737065616b696e67": 6555,
  "206c657474756365": 6556,
  "206775657373696e67": 6557,
  "556e666f7274756e6174656c79": 6558,
  "20517561636b": 6559,
  "2072697065": 6560,
  "20537573616e": 6561,
  "206869646573": 6562,
  "2063686f69636573": 6563,
  "20446f646f": 6564,
  "20526f766572": 6565,
  "42757a7a": 6566,
  "207369676e6564": 6567,
  "20736c6f776572": 6568,
  "207365656b6572": 6569,
  "20696e74726f6475636564": 6570,
  "2073696e676572": 6571,
  "206372656174696e67": 6572,
  "204d617474": 6573,
  "2066726f7a65": 6574,
  "2063656e74": 6575,
  "7567676c6573": 6576,
  "206a6f6b6564": 6577,
  "2073717565616c": 6578,
  "20746f6173746572": 6579,
  "206578706c6f72657273": 6580,
  "666974": 6581,
  "2061766f": 6582,
  "616e67696e67": 6583,
  "536f70686965": 6584,
  "2070726179696e67": 6585,
  "207772697474656e": 6586,
  "20646973636f766572696e67": 6587,
  "2070726f7669646564": 6588,
  "2044617261": 6589,
  "207265666c65": 6590,
  "204c696f6e": 6591,
  "457863757365": 6592,
  "206d757368726f6f6d73": 6593,
  "204a656666": 6594,
  "2050617773": 6595,
  "20706179696e67": 6596,
  "206b6e656573": 6597,
  "656e636573": 6598,
  "206869646572": 6599,
  "2077616e646572696e67": 6600,
  "20417368": 6601,
  "20696d61676573": 6602,
  "436861726c6965": 6603,
  "207374756e67": 6604,
  "2057696e6b": 6605,
  "206d61676e657473": 6606,
  "20626172656c79": 6607,
  "206265686176696e67": 6608,
  "20746970746f": 6609,
  "3f222c": 6610,
  "206d61726b6564": 6611,
  "6272757368": 6612,
  "727272": 6613,
  "20726573746f726564": 6614,
  "20446565": 6615,
  "206c656164696e67": 6616,
  "6c6c6564": 6617,
  "20636875636b": 6618,
  "61646f73": 6619,
  "206e696e65": 6620,
  "206772656574": 6621,
  "5465646479": 6622,
  "206765617273": 6623,
  "2062726176657279": 6624,
  "20536e7567676c6573": 6625,
  "6b79": 6626,
  "20636f6d7065746974696f6e": 6627,
  "65616c": 6628,
  "206f7574666974": 6629,
  "6f6c696e65": 6630,
  "2077697368696e67": 6631,
  "2070726f7065726c79": 6632,
  "2076656e7475726564": 6633,
  "746c65": 6634,
  "6161": 6635,
  "206d7573636c65": 6636,
  "2064616e636573": 6637,
  "2063686174": 6638,
  "2073616c7479": 6639,
  "2070656e73": 6640,
  "616d62": 6641,
  "204265747379": 6642,
  "2072616e676572": 6643,
  "205a69676779": 6644,
  "2064657365727665": 6645,
  "20686f7765766572": 6646,
  "73657175": 6647,
  "206d617474657273": 6648,
  "206461726b6e657373": 6649,
  "206275727374": 6650,
  "204675": 6651,
  "207261696e79": 6652,
  "20636f6277656273": 6653,
  "207275696e696e67": 6654,
  "206368656673": 6655,
  "20636f6e73657175": 6656,
  "20626c6f636b696e67": 6657,
  "2062616b": 6658,
  "7573746564": 6659,
  "6974656c79": 6660,
  "737479": 6661,
  "2073637572": 6662,
  "2076696e6573": 6663,
  "20666162": 6664,
  "6162656c": 6665,
  "20666162726963": 6666,
  "20656e74697265": 6667,
  "20626173656d656e74": 6668,
  "20706572666f726d6564": 6669,
  "206c65617374": 6670,
  "204275676779": 6671,
  "536e": 6672,
  "20736372617463686573": 6673,
  "2068656176696572": 6674,
  "20436c61697265": 6675,
  "206d696e7473": 6676,
  "20747769726c696e67": 6677,
  "2061766f6361646f73": 6678,
  "486f7765766572": 6679,
  "204c696e6461": 6680,
  "72696e6b": 6681,
  "666c": 6682,
  "207363757272696564": 6683,
  "206c6f73696e67": 6684,
  "2073756e666c6f77657273": 6685,
  "204a656e6e61": 6686,
  "207261696e636f": 6687,
  "2073776f726473": 6688,
  "5477656574": 6689,
  "20636c69636b": 6690,
  "61676963": 6691,
  "204c61736572": 6692,
  "2073696c656e74": 6693,
  "206a6f6273": 6694,
  "206e65636b6c61636573": 6695,
  "20666c616d6573": 6696,
  "204c756b65": 6697,
  "2072656c696566": 6698,
  "204772756d7079": 6699,
  "20736e6174": 6700,
  "207365776564": 6701,
  "20726f7474696e67": 6702,
  "6c656e": 6703,
  "4c697374656e": 6704,
  "466f6c6c6f77": 6705,
  "20747269636b79": 6706,
  "4a65727279": 6707,
  "206c696768746572": 6708,
  "6f70686961": 6709,
  "20626f7773": 6710,
  "20536b6970": 6711,
  "2065786861": 6712,
  "20736f6c7574696f6e": 6713,
  "20636f6e73657175656e636573": 6714,
  "416c6578": 6715,
  "204c656e61": 6716,
  "207469726573": 6717,
  "20737461696e": 6718,
  "42656570": 6719,
  "20756e7061636b6564": 6720,
  "4162": 6721,
  "20706172746963": 6722,
  "72616e6365": 6723,
  "207261636573": 6724,
  "2070696e73": 6725,
  "2062756d7073": 6726,
  "207772617073": 6727,
  "616973696573": 6728,
  "20776f77": 6729,
  "206465636f726174696e67": 6730,
  "206261636b6564": 6731,
  "63686572": 6732,
  "2064656e74697374": 6733,
  "2070757272": 6734,
  "206e6565646c6573": 6735,
  "2063617574696f75736c79": 6736,
  "206c696674696e67": 6737,
  "697a7a6965": 6738,
  "205072": 6739,
  "206163636f6d706c697368": 6740,
  "20747269616e676c6573": 6741,
  "2064616973696573": 6742,
  "657074": 6743,
  "20686573697461746564": 6744,
  "20616e6e6f79": 6745,
  "2054686f7365": 6746,
  "2067726f776c73": 6747,
  "20637261636b657273": 6748,
  "6f6b65": 6749,
  "2073746f6d706564": 6750,
  "206772616262696e67": 6751,
  "20636f7474": 6752,
  "2066696775726564": 6753,
  "20626f64696573": 6754,
  "206d61746572": 6755,
  "20627579696e67": 6756,
  "2054726565": 6757,
  "206d6174657269616c": 6758,
  "20526f6c6c79": 6759,
  "204669646f": 6760,
  "204164616d": 6761,
  "207377616e73": 6762,
  "2074696573": 6763,
  "20677269": 6764,
  "76657273": 6765,
  "2067726f7773": 6766,
  "200a20": 6767,
  "20737765657473": 6768,
  "20476f6f64627965": 6769,
  "206f776e657273": 6770,
  "20666c61766f72": 6771,
  "20636865656b73": 6772,
  "204361746879": 6773,
  "426967": 6774,
  "20737566666572696e67": 6775,
  "204a6573736965": 6776,
  "20456c": 6777,
  "76726f6f6d": 6778,
  "2066616374": 6779,
  "2067726f757073": 6780,
  "626c79": 6781,
  "20666f726568656164": 6782,
  "206c756e6773": 6783,
  "4861727279": 6784,
  "2072657061": 6785,
  "20696e7465726573746564": 6786,
  "2062616b657279": 6787,
  "204d696c6f": 6788,
  "206672656564": 6789,
  "4c696c6c79": 6790,
  "697463686573": 6791,
  "204e6f7468696e67": 6792,
  "20636875636b6c6564": 6793,
  "466f72": 6794,
  "207377657074": 6795,
  "20636f6e6e": 6796,
  "3f27": 6797,
  "2074687564": 6798,
  "20657868617573746564": 6799,
  "5477": 6800,
  "207477696e6b6c696e67": 6801,
  "20746170706564": 6802,
  "5275": 6803,
  "206e656374": 6804,
  "726f737479": 6805,
  "206e6563746172": 6806,
  "656c6c65": 6807,
  "206665617374": 6808,
  "206461726c696e67": 6809,
  "696e6472": 6810,
  "204d6164": 6811,
  "20776f7272696573": 6812,
  "20756e73": 6813,
  "2074756e6e656c73": 6814,
  "2066757a7a79": 6815,
  "207265706169726564": 6816,
  "20726561736f6e": 6817,
  "205472757374": 6818,
  "20436f70706572": 6819,
  "2042616c6c": 6820,
  "2061637469766974696573": 6821,
  "6c657473": 6822,
  "207065636b6564": 6823,
  "2048616e6e6168": 6824,
  "20656e7472616e6365": 6825,
  "20547279": 6826,
  "207261696e6472": 6827,
  "206d65616c73": 6828,
  "204c697374656e": 6829,
  "20706172746963756c6172": 6830,
  "20636f6d706c6574656c79": 6831,
  "206d61696c6564": 6832,
  "6374696f6e73": 6833,
  "206e65737473": 6834,
  "20776169746572": 6835,
  "20637564646c79": 6836,
  "2073656e7365": 6837,
  "204e616e61": 6838,
  "20636f6c6f726564": 6839,
  "61726b79": 6840,
  "206c656170": 6841,
  "73746570": 6842,
  "62616e64": 6843,
  "20706c656e7479": 6844,
  "207065656b696e67": 6845,
  "20736c616d6d6564": 6846,
  "2043617261": 6847,
  "6e6f": 6848,
  "20706c6179657273": 6849,
  "206d6f6e7468": 6850,
  "206275646765": 6851,
  "204269727468646179": 6852,
  "2051": 6853,
  "2073637261": 6854,
  "20666f7267657473": 6855,
  "2064656e": 6856,
  "2068616e6466756c": 6857,
  "204f6c69766572": 6858,
  "206d6572": 6859,
  "6f737369626c65": 6860,
  "2067656e6965": 6861,
  "20436872697374": 6862,
  "2073746f6f6c": 6863,
  "6967676965": 6864,
  "2074616c6b73": 6865,
  "20507570": 6866,
  "2053757a6965": 6867,
  "2070617373706f727473": 6868,
  "2066656564696e67": 6869,
  "2066696c6d73": 6870,
  "206261746873": 6871,
  "20696d706f737369626c65": 6872,
  "2064657465726d696e6174696f6e": 6873,
  "4d6179": 6874,
  "207072696e74696e67": 6875,
  "626f6174": 6876,
  "2064657369676e6564": 6877,
  "206275736573": 6878,
  "206f7070": 6879,
  "7565656e": 6880,
  "6c657068616e74": 6881,
  "207375697463617365": 6882,
  "2062617273": 6883,
  "20636f756e7473": 6884,
  "2073746f6c656e": 6885,
  "20737072656164696e67": 6886,
  "207370696b6573": 6887,
  "20536e6170": 6888,
  "20776970696e67": 6889,
  "207374656572": 6890,
  "206c616d62": 6891,
  "205261696e": 6892,
  "20686f6e6b6564": 6893,
  "65747479": 6894,
  "6e696573": 6895,
  "57686565": 6896,
  "20636f7762": 6897,
  "20736570617261746564": 6898,
  "626c696e6773": 6899,
  "207369626c696e6773": 6900,
  "20686f7073": 6901,
  "2063686f70": 6902,
  "20736577696e67": 6903,
  "206669726573": 6904,
  "205477696e6b6c65": 6905,
  "206665766572": 6906,
  "207477696e6b6c65": 6907,
  "207479": 6908,
  "2063616d70696e67": 6909,
  "204d697261": 6910,
  "206c6f776572": 6911,
  "206368616e67696e67": 6912,
  "796573": 6913,
  "7265746368": 6914,
  "20626568617669": 6915,
  "20426c6f6f6d": 6916,
  "6d6173": 6917,
  "206c697175": 6918,
  "2063656c6562726174696f6e": 6919,
  "627574": 6920,
  "2073717565616c6564": 6921,
  "20646f6c6c686f757365": 6922,
  "53756e6e79": 6923,
  "206261636b77617264": 6924,
  "20616765": 6925,
  "20736e617463686564": 6926,
  "2063617368": 6927,
  "686f": 6928,
  "207477696365": 6929,
  "6c6565": 6930,
  "2073776179": 6931,
  "697463686564": 6932,
  "2063656c6562726174696e67": 6933,
  "205065616e7574": 6934,
  "20736872696e6b696e67": 6935,
  "2061636865": 6936,
  "77656564": 6937,
  "206b696e6773": 6938,
  "72696f7573": 6939,
  "2073686f7073": 6940,
  "206b697474656e73": 6941,
  "636f7065": 6942,
  "526f7365": 6943,
  "204a657373696361": 6944,
  "204a61636f62": 6945,
  "2047696e61": 6946,
  "61757261": 6947,
  "20687573": 6948,
  "20746f7563686573": 6949,
  "61697279": 6950,
  "2070616e63616b6573": 6951,
  "2061766f6964": 6952,
  "2073706174": 6953,
  "2046726f737479": 6954,
  "726967": 6955,
  "686f67": 6956,
  "204e696e61": 6957,
  "207061746873": 6958,
  "69766573": 6959,
  "636b79": 6960,
  "20486f6c64": 6961,
  "20726f7474656e": 6962,
  "2063616c6d6564": 6963,
  "53616e6479": 6964,
  "2073656177656564": 6965,
  "2064726f7070696e67": 6966,
  "204a6f6e": 6967,
  "204d656c": 6968,
  "696c6573": 6969,
  "50697070": 6970,
  "207477697374696e67": 6971,
  "207374726f6b6564": 6972,
  "20756e74696564": 6973,
  "6c6c656e": 6974,
  "20706c6179686f757365": 6975,
  "6e65": 6976,
  "4d696c6c6965": 6977,
  "2073747564656e7473": 6978,
  "2070757070696573": 6979,
  "636c": 6980,
  "20536f66": 6981,
  "6869": 6982,
  "20736372657773": 6983,
  "20617374726f6e": 6984,
  "205265": 6985,
  "20736f6d65626f6479": 6986,
  "69676e696e67": 6987,
  "206c6971756964": 6988,
  "616d6d79": 6989,
  "2077616b6573": 6990,
  "20737175697368": 6991,
  "20576f6f66": 6992,
  "2062726163656c657473": 6993,
  "20617374726f6e617574": 6994,
  "696d6d6572": 6995,
  "6172656e": 6996,
  "207468726f776e": 6997,
  "206c6f6f7073": 6998,
  "204f74686572": 6999,
  "4c75636b696c79": 7000,
  "207772617070696e67": 7001,
  "20706c61696e": 7002,
  "207472616d70": 7003,
  "20706c616e6e696e67": 7004,
  "20736b756e6b": 7005,
  "2061696d6564": 7006,
  "2070656e6e696573": 7007,
  "2073686f6f": 7008,
  "206c69667473": 7009,
  "2064616e63657273": 7010,
  "20737061726b73": 7011,
  "2066697265666c79": 7012,
  "70656e": 7013,
  "44616e": 7014,
  "20706f73746572": 7015,
  "79616e": 7016,
  "656e6479": 7017,
  "2063757374": 7018,
  "204368726973746d6173": 7019,
  "207265776172646564": 7020,
  "206f626a65637473": 7021,
  "20646972656374696f6e73": 7022,
  "7573696e67": 7023,
  "696e676f": 7024,
  "207265666c656374696f6e": 7025,
  "2068757362616e64": 7026,
  "e28094": 7027,
  "54616b65": 7028,
  "7269766572": 7029,
  "20636c756573": 7030,
  "75707079": 7031,
  "206c65616473": 7032,
  "20696e63726561736564": 7033,
  "20626c6f636b6564": 7034,
  "20726973696e67": 7035,
  "20646f64": 7036,
  "20636f7573696e": 7037,
  "20596573746572646179": 7038,
  "20576974686f7574": 7039,
  "20666f7267657474696e67": 7040,
  "726967756564": 7041,
  "20637573746f6d": 7042,
  "4b617465": 7043,
  "756465": 7044,
  "207472616d706f6c696e65": 7045,
  "20626567696e6e696e67": 7046,
  "2073746f72656b6565706572": 7047,
  "20706f75746564": 7048,
  "207a6562726173": 7049,
  "206865646765686f67": 7050,
  "20616666": 7051,
  "20e28098": 7052,
  "20626f72726f776564": 7053,
  "20526f6c6c6965": 7054,
  "20736e6f77666c": 7055,
  "20636f756e74727973696465": 7056,
  "4a756d70": 7057,
  "206d65736d6572": 7058,
  "204a6179": 7059,
  "2076656869636c6573": 7060,
  "20696e737472756d": 7061,
  "204d6963": 7062,
  "204b61796c61": 7063,
  "205570": 7064,
  "2066726f776e696e67": 7065,
  "6976697479": 7066,
  "506174": 7067,
  "556e646572": 7068,
  "206d61726b6572": 7069,
  "796f6e64": 7070,
  "2070726573736573": 7071,
  "206265796f6e64": 7072,
  "20517565656e": 7073,
  "2064616d616765": 7074,
  "204f6e6c79": 7075,
  "69656365": 7076,
  "6976657279": 7077,
  "2066617274": 7078,
  "2054617261": 7079,
  "20426967676965": 7080,
  "6a6f": 7081,
  "206865616c7468": 7082,
  "207768697370657273": 7083,
  "207377696d73756974": 7084,
  "20736c697073": 7085,
  "206e696262": 7086,
  "204a756c6961": 7087,
  "61726d6572": 7088,
  "207761726d6572": 7089,
  "20666c617070696e67": 7090,
  "20746970746f6564": 7091,
  "20726567726574746564": 7092,
  "6974746564": 7093,
  "5a6970": 7094,
  "206c6179696e67": 7095,
  "20526f626f": 7096,
  "61646573": 7097,
  "2079656c70": 7098,
  "2046697265": 7099,
  "207261696e73": 7100,
  "20676c756564": 7101,
  "206576657279626f6479": 7102,
  "206372656174696f6e73": 7103,
  "2068656172696e67": 7104,
  "2073776972": 7105,
  "20636f6c646572": 7106,
  "6976657273697479": 7107,
  "61656c": 7108,
  "20736861706564": 7109,
  "20456c657068616e74": 7110,
  "2073747265657473": 7111,
  "2066696e73": 7112,
  "207275737479": 7113,
  "2063757368696f6e73": 7114,
  "4f7574": 7115,
  "2073616e": 7116,
  "206661727468657374": 7117,
  "2063726561746976697479": 7118,
  "204d696b6579": 7119,
  "616e73": 7120,
  "2073616c65": 7121,
  "416c77617973": 7122,
  "436f": 7123,
  "207374726f6e67657374": 7124,
  "6962626974": 7125,
  "2066697473": 7126,
  "20537061726b79": 7127,
  "2062656c6c73": 7128,
  "20646f6c6c617273": 7129,
  "204c61727279": 7130,
  "206561726e": 7131,
  "69616d": 7132,
  "616e676c65": 7133,
  "206c656e64696e67": 7134,
  "204d6f6f6e": 7135,
  "204368697270": 7136,
  "65657365": 7137,
  "2063617368696572": 7138,
  "4d696c6c79": 7139,
  "20696e636c7564696e67": 7140,
  "20736e69666673": 7141,
  "2073616e6b": 7142,
  "207261696e636f6174": 7143,
  "2052696368": 7144,
  "207472656d626c6564": 7145,
  "2073746f7070696e67": 7146,
  "20736f75726365": 7147,
  "697469": 7148,
  "696d6f6e": 7149,
  "204d69737379": 7150,
  "20776f62626c79": 7151,
  "20696e64656564": 7152,
  "74657273": 7153,
  "20677565737473": 7154,
  "2073696e676c65": 7155,
  "207265636f6d6d656e646564": 7156,
  "20776565": 7157,
  "207370656c6c73": 7158,
  "206163636f6d706c6973686d656e74": 7159,
  "2062656c7473": 7160,
  "2073757270726973696e67": 7161,
  "20656e6473": 7162,
  "20686f706566756c": 7163,
  "20736561736f6e73": 7164,
  "2054616b65": 7165,
  "20536e6f776d616e": 7166,
  "20456c73": 7167,
  "42656172": 7168,
  "20706c616e73": 7169,
  "69636861656c": 7170,
  "20656e636f75726167": 7171,
  "20737570706f72746564": 7172,
  "737469636b": 7173,
  "696c6c6564": 7174,
  "207375666665726564": 7175,
  "20617274697374": 7176,
  "20706572666f726d616e6365": 7177,
  "656574": 7178,
  "4e696e61": 7179,
  "20736c6f776564": 7180,
  "2067726f7373": 7181,
  "20666c61766f7273": 7182,
  "6964696e67": 7183,
  "65727461696e": 7184,
  "207370696e73": 7185,
  "63686f": 7186,
  "517561636b": 7187,
  "206c6162656c73": 7188,
  "207261696e64726f7073": 7189,
  "2064656c6976657279": 7190,
  "75696e67": 7191,
  "61726163": 7192,
  "20726163636f6f6e": 7193,
  "20666f72676976696e67": 7194,
  "6f626f6479": 7195,
  "20576f6f": 7196,
  "20706f757273": 7197,
  "746865": 7198,
  "696c697479": 7199,
  "2076616e696c6c61": 7200,
  "20747572746c6573": 7201,
  "207374616e6473": 7202,
  "42696c6c": 7203,
  "75657373": 7204,
  "20726563697065": 7205,
  "206265616d": 7206,
  "207479696e67": 7207,
  "205377": 7208,
  "206765657365": 7209,
  "2077696c6c696e67": 7210,
  "20726f62626572": 7211,
  "20647261776e": 7212,
  "56726f6f6d": 7213,
  "2077657074": 7214,
  "20426f6e6573": 7215,
  "20636861726163": 7216,
  "20706f7073": 7217,
  "20636f726e657273": 7218,
  "20536f70686961": 7219,
  "656c6961": 7220,
  "20717565656e73": 7221,
  "207361696c626f6174": 7222,
  "2067726970": 7223,
  "20646965": 7224,
  "2064726976657273": 7225,
  "6974756465": 7226,
  "206d6f6f": 7227,
  "2068616c6c776179": 7228,
  "20696d6167696e696e67": 7229,
  "207365636f6e6473": 7230,
  "2046757a7a79": 7231,
  "4d696e65": 7232,
  "20707265706172696e67": 7233,
  "20776964656e6564": 7234,
  "206164756c74": 7235,
  "20537069726974": 7236,
  "2067726f636572": 7237,
  "20636f6f70": 7238,
  "2074616c656e746564": 7239,
  "2050616d": 7240,
  "204265616b79": 7241,
  "20497a7a79": 7242,
  "756d6d696573": 7243,
  "207361696c6f7273": 7244,
  "6c6c696e67": 7245,
  "20736f66746572": 7246,
  "206173696465": 7247,
  "207761746572696e67": 7248,
  "2073656e64696e67": 7249,
  "206b6e6f7473": 7250,
  "20756e73757265": 7251,
  "20746970706564": 7252,
  "4c756c75": 7253,
  "2074726565686f757365": 7254,
  "20686f72697a": 7255,
  "204c697a7a6965": 7256,
  "206e6f746573": 7257,
  "206563686f": 7258,
  "6967657273": 7259,
  "206163686965766564": 7260,
  "20686f72697a6f6e": 7261,
  "2073717565616b": 7262,
  "2064656c69766572696e67": 7263,
  "20706c656173757265": 7264,
  "20686f74746572": 7265,
  "205374656c6c61": 7266,
  "436c617261": 7267,
  "20707570696c73": 7268,
  "20627572726f77": 7269,
  "20616e67656c73": 7270,
  "20637572696f75736c79": 7271,
  "456c6c6965": 7272,
  "2079756d": 7273,
  "20626c696e6b696e67": 7274,
  "204a756e65": 7275,
  "207477656574": 7276,
  "2073796d626f6c73": 7277,
  "20646574": 7278,
  "2053747265746368": 7279,
  "776b": 7280,
  "2070617373656e": 7281,
  "2052756479": 7282,
  "2043696e6479": 7283,
  "2074756d6d696573": 7284,
  "2074697373": 7285,
  "20706967656f6e73": 7286,
  "2066696775726573": 7287,
  "756d626c696e67": 7288,
  "6f6579": 7289,
  "2062616e6461676573": 7290,
  "20526f62657274": 7291,
  "20636f7570": 7292,
  "20446f63746f72": 7293,
  "20726f626f7473": 7294,
  "616c7068": 7295,
  "20746f73736564": 7296,
  "20686f7572": 7297,
  "206261636b7761726473": 7298,
  "20726f617273": 7299,
  "42616279": 7300,
  "206d65726d61": 7301,
  "757a7a": 7302,
  "20726174686572": 7303,
  "61747572": 7304,
  "4d61726961": 7305,
  "6369746564": 7306,
  "20506c6179": 7307,
  "2043726162": 7308,
  "4d6f6f": 7309,
  "69676874696e67": 7310,
  "446f6c6c79": 7311,
  "2067726f636572696573": 7312,
  "207a697070696e67": 7313,
  "507574": 7314,
  "56657279": 7315,
  "20756e77": 7316,
  "7072696e": 7317,
  "20616d6f6e67": 7318,
  "20626c6f776e": 7319,
  "206963696e67": 7320,
  "21e2809d2e": 7321,
  "2072756d626c65": 7322,
  "2061667465727761726473": 7323,
  "6970706572": 7324,
  "20736372657764": 7325,
  "757368696e67": 7326,
  "2073706564": 7327,
  "2070726f7665": 7328,
  "20676c6565": 7329,
  "2054697469": 7330,
  "20546961": 7331,
  "20646970": 7332,
  "206f766572636f6d65": 7333,
  "52756279": 7334,
  "517569636b": 7335,
  "2073757266626f617264": 7336,
  "2073686f76656c73": 7337,
  "20736c69636573": 7338,
  "20546f6f74": 7339,
  "206d65727279": 7340,
  "20776f62626c65": 7341,
  "206d617465": 7342,
  "2054757274": 7343,
  "204162626965": 7344,
  "2068656164696e67": 7345,
  "2064697374757262696e67": 7346,
  "207377616c6c": 7347,
  "207265766572736564": 7348,
  "20666972656669676874657273": 7349,
  "4a756c": 7350,
  "207377616c6c6f776564": 7351,
  "2063686970": 7352,
  "656473": 7353,
  "2073636f726564": 7354,
  "20666c6970706564": 7355,
  "204a756d70": 7356,
  "2073717565657a696e67": 7357,
  "75737479": 7358,
  "4672616e6b": 7359,
  "617479": 7360,
  "5375": 7361,
  "2077616b696e67": 7362,
  "20696e74726967756564": 7363,
  "536164": 7364,
  "4c696b65": 7365,
  "206d616b6572": 7366,
  "204261726b79": 7367,
  "61776e": 7368,
  "4265747479": 7369,
  "2070756666": 7370,
  "206861776b": 7371,
  "20656e636f75726167696e67": 7372,
  "20617564": 7373,
  "204578": 7374,
  "6f73656e": 7375,
  "6f6e696573": 7376,
  "2063686f73656e": 7377,
  "20526f6e": 7378,
  "686577": 7379,
  "204661726d6572": 7380,
  "20416e67": 7381,
  "20636f75706c65": 7382,
  "2064657369676e73": 7383,
  "20736c697070696e67": 7384,
  "207363726577647269766572": 7385,
  "2073717569736879": 7386,
  "20456d6d79": 7387,
  "2067617264656e6572": 7388,
  "2063656e746572": 7389,
  "20726976657273": 7390,
  "20726573706f6e64": 7391,
  "206d61726b657273": 7392,
  "696c6579": 7393,
  "20746967657273": 7394,
  "206a617273": 7395,
  "70656374696e67": 7396,
  "2066726f776e73": 7397,
  "62697264": 7398,
  "20666c75747465726564": 7399,
  "205361646c79": 7400,
  "204b6974": 7401,
  "526962626974": 7402,
  "206669726566696768746572": 7403,
  "20536c": 7404,
  "205279616e": 7405,
  "207375697473": 7406,
  "20736563757265": 7407,
  "20737072696e6b6c6564": 7408,
  "20637265616d79": 7409,
  "6173686573": 7410,
  "20736861726b73": 7411,
  "2069676e6f72696e67": 7412,
  "20627275": 7413,
  "20676967676c6573": 7414,
  "20746973737565": 7415,
  "2074696768746572": 7416,
  "206669726d6c79": 7417,
  "6f756e6365": 7418,
  "204c61757261": 7419,
  "666c79": 7420,
  "2073686f776e": 7421,
  "2066616d696c696172": 7422,
  "2074686f726e73": 7423,
  "5370696b65": 7424,
  "20576f": 7425,
  "2064726177657273": 7426,
  "6368696c64": 7427,
  "205a6565": 7428,
  "2065787072657373": 7429,
  "436172": 7430,
  "6d656e7473": 7431,
  "20646566": 7432,
  "20646172696e67": 7433,
  "2063726f7373696e67": 7434,
  "2061756469656e6365": 7435,
  "20706572666f726d696e67": 7436,
  "20636f6c6f75726564": 7437,
  "20636c6f756479": 7438,
  "20636f72": 7439,
  "20616973": 7440,
  "204e69636b": 7441,
  "6165": 7442,
  "726174": 7443,
  "20706564616c6564": 7444,
  "476574": 7445,
  "206d697874757265": 7446,
  "2074696c": 7447,
  "20677261636566756c6c79": 7448,
  "676779": 7449,
  "206861697263757473": 7450,
  "207969656c646564": 7451,
  "20706f6e696573": 7452,
  "206469736f62": 7453,
  "2063726f776e73": 7454,
  "2062697473": 7455,
  "20746f6464": 7456,
  "20536c656570": 7457,
  "206e6572766f75736c79": 7458,
  "2068616e67657273": 7459,
  "62626c6564": 7460,
  "205061746368": 7461,
  "5a6f6f6d79": 7462,
  "2070617973": 7463,
  "2032": 7464,
  "207065636b": 7465,
  "207374726f6b65": 7466,
  "206576": 7467,
  "66616c6c": 7468,
  "42616e67": 7469,
  "65656e": 7470,
  "20726573706563746564": 7471,
  "206e6170706564": 7472,
  "6176656e": 7473,
  "206d696e646564": 7474,
  "64646965": 7475,
  "426573736965": 7476,
  "61626c79": 7477,
  "426f7973": 7478,
  "20746573746564": 7479,
  "6164696e67": 7480,
  "706172656e74": 7481,
  "204368726973": 7482,
  "4b696d": 7483,
  "20556e6976657273697479": 7484,
  "204e656172": 7485,
  "2062656568": 7486,
  "20547572746c65": 7487,
  "2073757266696e67": 7488,
  "206e65696768626f757273": 7489,
  "6172726f77": 7490,
  "7665726564": 7491,
  "207368616479": 7492,
  "696f6e61": 7493,
  "61726c696e6773": 7494,
  "206d6167696369616e": 7495,
  "20656e746875736961736d": 7496,
  "206461726c696e6773": 7497,
  "20776973656c79": 7498,
  "207374697463686573": 7499,
  "207361696c73": 7500,
  "6b656e64": 7501,
  "44656172": 7502,
  "207765656b656e64": 7503,
  "2074686f7567687473": 7504,
  "467265646479": 7505,
  "2054776565746965": 7506,
  "2072656d696e6473": 7507,
  "2074656d706572": 7508,
  "6f72696e67": 7509,
  "746861": 7510,
  "616e746861": 7511,
  "20737572726f756e64696e6773": 7512,
  "207370697473": 7513,
  "20666c656173": 7514,
  "207465616d73": 7515,
  "206c6573736f6e73": 7516,
  "2066696c6c73": 7517,
  "20666c6970": 7518,
  "20416c6f6e67": 7519,
  "207061696e746272757368": 7520,
  "206d656c6f6e73": 7521,
  "206d65726d616964": 7522,
  "6f6e69": 7523,
  "4b61746965": 7524,
  "206772616e646368696c64": 7525,
  "20686f6f7073": 7526,
  "206578706c6f": 7527,
  "20656c626f77": 7528,
  "2073706f727473": 7529,
  "4775657373": 7530,
  "206c696573": 7531,
  "204669676874696e67": 7532,
  "726163": 7533,
  "2070616e69636b6564": 7534,
  "20636c65616e6572": 7535,
  "20616d6f756e74": 7536,
  "6375736564": 7537,
  "206c6f6e67657374": 7538,
  "2073636f6f74657273": 7539,
  "206c656e74": 7540,
  "697461": 7541,
  "696d6d6572696e67": 7542,
  "2073696c6c": 7543,
  "2062656c6f766564": 7544,
  "50697070696e": 7545,
  "2062656568697665": 7546,
  "416c7269676874": 7547,
  "6f6e67726174": 7548,
  "6f6761": 7549,
  "6c6c65": 7550,
  "6f6e67726174756c": 7551,
  "206f797374657273": 7552,
  "206772616e64706172656e74": 7553,
  "20666f72676976656e": 7554,
  "206d6167617a696e6573": 7555,
  "20617272": 7556,
  "2057697365": 7557,
  "20656c66": 7558,
  "20726570656174696e67": 7559,
  "20646973637573736564": 7560,
  "207377656574657374": 7561,
  "205468616e6b73": 7562,
  "4b656570": 7563,
  "2077616464": 7564,
  "204d617961": 7565,
  "207265617373": 7566,
  "206c616365": 7567,
  "204772616e6e79": 7568,
  "206e696768746d61726573": 7569,
  "207475626573": 7570,
  "2057696c6c79": 7571,
  "20756e6465727374616e6473": 7572,
  "2073706f6f6e66756c": 7573,
  "206e6f6f64": 7574,
  "2062617468696e67": 7575,
  "205a6f6579": 7576,
  "61737479": 7577,
  "416d": 7578,
  "207377656570": 7579,
  "206d616e6e657273": 7580,
  "63726f77": 7581,
  "556e636c65": 7582,
  "207772696e6b": 7583,
  "20737072616e67": 7584,
  "206e7572": 7585,
  "2062756c6c79": 7586,
  "20486f6c6c79": 7587,
  "206775696465": 7588,
  "20596574": 7589,
  "6f6e6e61": 7590,
  "616e6379": 7591,
  "2063726577": 7592,
  "726f6d697365": 7593,
  "4a617a7a": 7594,
  "206272656174686564": 7595,
  "7768696c65": 7596,
  "7374657073": 7597,
  "696c6461": 7598,
  "656e746c79": 7599,
  "2042616c6c79": 7600,
  "2062756c6273": 7601,
  "206e65617265": 7602,
  "20677261737379": 7603,
  "20776967676c79": 7604,
  "2074657374696e67": 7605,
  "207370696573": 7606,
  "20636f7567": 7607,
  "20736f6c76696e67": 7608,
  "20736865657473": 7609,
  "20526f6f": 7610,
  "20666f6f747374657073": 7611,
  "6e74696c": 7612,
  "41667465727761726473": 7613,
  "207370656564696e67": 7614,
  "20666f6375736564": 7615,
  "6f756e636564": 7616,
  "63657074": 7617,
  "3f2122": 7618,
  "206d65736d6572697a6564": 7619,
  "2063616d656c": 7620,
  "20627261766572": 7621,
  "206865736974616e74": 7622,
  "20537061726b6c65": 7623,
  "206c69636b696e67": 7624,
  "2072757368696e67": 7625,
  "2057656c6c": 7626,
  "206a6f696e696e67": 7627,
  "205075707079": 7628,
  "20706f6c6172": 7629,
  "2067726565746564": 7630,
  "204d6172746861": 7631,
  "657370697465": 7632,
  "2d2d": 7633,
  "2042756262": 7634,
  "5768696368": 7635,
  "4b696b69": 7636,
  "20776f726e": 7637,
  "206d6174657269616c73": 7638,
  "206368616e676573": 7639,
  "204e6f626f6479": 7640,
  "756e64726564": 7641,
  "2073746f726564": 7642,
  "2062696379636c6573": 7643,
  "206d617374": 7644,
  "20616e676572": 7645,
  "4c65617665": 7646,
  "20706561636566756c6c79": 7647,
  "207368697073": 7648,
  "207370696365": 7649,
  "20746572726966696564": 7650,
  "206e757a7a": 7651,
  "20676f6e6e61": 7652,
  "2053686f77": 7653,
  "20706f6c6974656c79": 7654,
  "536e6f77": 7655,
  "207370696c6c73": 7656,
  "20736361726563726f77": 7657,
  "206b6e69766573": 7658,
  "206576696c": 7659,
  "204d697879": 7660,
  "7070696573": 7661,
  "2062757279696e67": 7662,
  "6361": 7663,
  "206865616c696e67": 7664,
  "206172656e": 7665,
  "20646f6e6b6579": 7666,
  "206165726f706c616e6573": 7667,
  "667265657a65": 7668,
  "4576656e": 7669,
  "207365616c73": 7670,
  "2073636174746572696e67": 7671,
  "206d696c6573": 7672,
  "204368657779": 7673,
  "616d626f6f": 7674,
  "2064756d70": 7675,
  "20776f727279696e67": 7676,
  "426565": 7677,
  "7a6f6f6d": 7678,
  "62656570": 7679,
  "4461766964": 7680,
  "204c656e6e79": 7681,
  "2070757a7a6c6564": 7682,
  "20737461636b6564": 7683,
  "204b6970": 7684,
  "50656e6e79": 7685,
  "204e696365": 7686,
  "206c6f736573": 7687,
  "6464696e67": 7688,
  "2074726176656c6c6564": 7689,
  "206261736b657473": 7690,
  "2057696e": 7691,
  "204f6b6179": 7692,
  "2067617a696e67": 7693,
  "20626c617374": 7694,
  "69706573": 7695,
  "2054657373": 7696,
  "4875727279": 7697,
  "2074656d7065726174757265": 7698,
  "20756e64": 7699,
  "2074617374696e67": 7700,
  "206472697070696e67": 7701,
  "20636c7565": 7702,
  "2062656c696576696e67": 7703,
  "2070696e6368696e67": 7704,
  "65726d": 7705,
  "20736f616b696e67": 7706,
  "2072617473": 7707,
  "203130": 7708,
  "697363": 7709,
  "2073616e6479": 7710,
  "72656374": 7711,
  "2049736e": 7712,
  "2053696d6f6e": 7713,
  "726579": 7714,
  "616e7768696c65": 7715,
  "20416269": 7716,
  "42696e6b79": 7717,
  "2070756e6973686d656e74": 7718,
  "2062616e676564": 7719,
  "2068756d616e73": 7720,
  "206372617368696e67": 7721,
  "20666f726365": 7722,
  "20416e61": 7723,
  "2068756e64726564": 7724,
  "2067657374": 7725,
  "204c6961": 7726,
  "207377696d6d6572": 7727,
  "204368657373": 7728,
  "20736e6f77666c616b6573": 7729,
  "2072656c6178696e67": 7730,
  "207265736973746564": 7731,
  "20626565706564": 7732,
  "204661697279": 7733,
  "207175617272656c6564": 7734,
  "666f726d": 7735,
  "656c6965": 7736,
  "2072616d70": 7737,
  "2057656e6479": 7738,
  "206a6f696e73": 7739,
  "61626279": 7740,
  "206261636b7061636b73": 7741,
  "205068": 7742,
  "7965617273": 7743,
  "206472657373696e67": 7744,
  "2064656c61796564": 7745,
  "20746f64646c6572": 7746,
  "204c75636b696c79": 7747,
  "20666c69676874": 7748,
  "20636f766572696e67": 7749,
  "205465": 7750,
  "6f72746572": 7751,
  "54776f": 7752,
  "4f70656e": 7753,
  "4279": 7754,
  "20656e636f75726167656d656e74": 7755,
  "2062656e63686573": 7756,
  "20746f77617264": 7757,
  "2073637261706564": 7758,
  "20707572706f7365": 7759,
  "20666f637573": 7760,
  "204a756479": 7761,
  "426f77": 7762,
  "20636f7272656374": 7763,
  "272e22": 7764,
  "206c6970737469636b": 7765,
  "2062616d626f6f": 7766,
  "537065": 7767,
  "207477696e6b6c6564": 7768,
  "20706f74696f6e": 7769,
  "207065726d6974746564": 7770,
  "206d6f6e746873": 7771,
  "20436f77": 7772,
  "206c616e677561676573": 7773,
  "206f7264657273": 7774,
  "2066726565646f6d": 7775,
  "546f6e79": 7776,
  "207269736b73": 7777,
  "20706f7070696573": 7778,
  "206d6173746572": 7779,
  "73686d": 7780,
  "206e6f6f646c6573": 7781,
  "206661646564": 7782,
  "20776f756e6473": 7783,
  "73686d616c6c6f77": 7784,
  "72696572": 7785,
  "4b696473": 7786,
  "6973696f6e73": 7787,
  "204a6f6a6f": 7788,
  "20637265616d73": 7789,
  "2062697264686f757365": 7790,
  "2063656c6c73": 7791,
  "20616e6e6f796564": 7792,
  "2048657262": 7793,
  "6f706573": 7794,
  "20736e696666696e67": 7795,
  "20636865657273": 7796,
  "206164756c7473": 7797,
  "4269726479": 7798,
  "20756e777261": 7799,
  "65636361": 7800,
  "42757a7a79": 7801,
  "207075636b": 7802,
  "206f70696e696f6e73": 7803,
  "20666c6f617473": 7804,
  "616e646173": 7805,
  "496e7374656164": 7806,
  "20666c6f776e": 7807,
  "20736e65657a6573": 7808,
  "207363656e": 7809,
  "2068616e64736f6d65": 7810,
  "206e6f6464696e67": 7811,
  "204d696e74": 7812,
  "20736d656c6c696e67": 7813,
  "206275726e74": 7814,
  "2035": 7815,
  "2064726966746564": 7816,
  "69646572": 7817,
  "62616765": 7818,
  "2077697468696e": 7819,
  "20736369656e74": 7820,
  "20686569676874": 7821,
  "2064616d61676564": 7822,
  "20626f74686572696e67": 7823,
  "2074656172696e67": 7824,
  "20736c6974686572": 7825,
  "20706c6561646564": 7826,
  "20696e737472756d656e7473": 7827,
  "2065617365": 7828,
  "20416c69": 7829,
  "6461": 7830,
  "4261636b": 7831,
  "20736369656e74697374": 7832,
  "204d61726965": 7833,
  "4d697261": 7834,
  "476f6f646e69676874": 7835,
  "20706f756e64": 7836,
  "2073656c6c6572": 7837,
  "2068616e64696e67": 7838,
  "206765726d": 7839,
  "20536179": 7840,
  "2077617374696e67": 7841,
  "2066696c6573": 7842,
  "20726573756c7473": 7843,
  "20647265616d74": 7844,
  "204d6162656c": 7845,
  "62656c6c": 7846,
  "206578706c61696e73": 7847,
  "2064657374726f79696e67": 7848,
  "206272757368696e67": 7849,
  "6f757379": 7850,
  "2068697373": 7851,
  "2063686172616374657273": 7852,
  "2052617a6f72": 7853,
  "204372": 7854,
  "4361726c": 7855,
  "206365727461696e": 7856,
  "20537465": 7857,
  "50616e6479": 7858,
  "426568696e64": 7859,
  "20737765617479": 7860,
  "20487567": 7861,
  "756e63686564": 7862,
  "20627573696e657373": 7863,
  "20526f62626965": 7864,
  "2074616c656e7473": 7865,
  "206f6e77617264": 7866,
  "547279": 7867,
  "20656e67696e6573": 7868,
  "2062726176657374": 7869,
  "6974696f6e": 7870,
  "20737465726e6c79": 7871,
  "2050656e": 7872,
  "204a616e6965": 7873,
  "7072696e7473": 7874,
  "20706f73746d616e": 7875,
  "206d6f73717569746f6573": 7876,
  "206d696e6473": 7877,
  "756e646572": 7878,
  "63616b65": 7879,
  "207475636b": 7880,
  "20736361726573": 7881,
  "7572696f7573": 7882,
  "2073746f6d70": 7883,
  "2061706f6c6f6769736564": 7884,
  "75656c": 7885,
  "206d616e6167": 7886,
  "20736e75636b": 7887,
  "2062697474656e": 7888,
  "61747465726564": 7889,
  "2074696c746564": 7890,
  "207377697463686564": 7891,
  "2072656d696e64696e67": 7892,
  "206465636973696f6e73": 7893,
  "2073696e67657273": 7894,
  "20646573706572": 7895,
  "206265686176696f72": 7896,
  "20506f6f72": 7897,
  "617368696e67": 7898,
  "204a75646765": 7899,
  "6262657273": 7900,
  "696e6e79": 7901,
  "2073717565616b6564": 7902,
  "207065656c6564": 7903,
  "204576657279626f6479": 7904,
  "2079756d6d": 7905,
  "207075727273": 7906,
  "20427261": 7907,
  "2074726561746564": 7908,
  "20736d6173686564": 7909,
  "20727573746c696e67": 7910,
  "20646973706c61796564": 7911,
  "20556e74696c": 7912,
  "206e6561746c79": 7913,
  "206d61746579": 7914,
  "20706c616e74696e67": 7915,
  "2042657373": 7916,
  "206d617273686d616c6c6f77": 7917,
  "20696e7370": 7918,
  "2079656c706564": 7919,
  "207379": 7920,
  "206772616e64706172656e7473": 7921,
  "20637261636b73": 7922,
  "2062656c6c696573": 7923,
  "61766572": 7924,
  "207368696e6573": 7925,
  "207363616d70": 7926,
  "204e617679": 7927,
  "20686f6f": 7928,
  "206661696c6564": 7929,
  "20636f6c6f72696e67": 7930,
  "20596f6761": 7931,
  "6c696e65": 7932,
  "207a6f6f6d73": 7933,
  "204d616b65": 7934,
  "727570": 7935,
  "206e61737479": 7936,
  "20627265617468696e67": 7937,
  "20636f6d626564": 7938,
  "2070616e646173": 7939,
  "2064657370697465": 7940,
  "2061646472657373": 7941,
  "696768696e67": 7942,
  "20776174657266616c6c": 7943,
  "756666696e": 7944,
  "6f6d70": 7945,
  "6363": 7946,
  "204c6f6f70": 7947,
  "20416e67656c": 7948,
  "54696c6c79": 7949,
  "207769646572": 7950,
  "20726f6262657273": 7951,
  "20616e746963": 7952,
  "506c6179": 7953,
  "4162696761696c": 7954,
  "207377656174657273": 7955,
  "206563686f6564": 7956,
  "20646f6f72776179": 7957,
  "20546f6464": 7958,
  "6576696e": 7959,
  "206564676573": 7960,
  "20696e6a": 7961,
  "20536861646f77": 7962,
  "41756e74": 7963,
  "20676170": 7964,
  "206469736f626579": 7965,
  "20426c696e6b79": 7966,
  "77697365": 7967,
  "4c697a": 7968,
  "204d69636861656c": 7969,
  "20746172": 7970,
  "20466c69636b": 7971,
  "6f73636f7065": 7972,
  "6f726b696e67": 7973,
  "57616b65": 7974,
  "207461706564": 7975,
  "206d61676e6966": 7976,
  "756c70": 7977,
  "666174686572": 7978,
  "2073636f6c6473": 7979,
  "20666c617073": 7980,
  "20616374696f6e": 7981,
  "20637261776c73": 7982,
  "204d696e6479": 7983,
  "526f73": 7984,
  "2073776170": 7985,
  "20676f62626c6564": 7986,
  "206261636b73": 7987,
  "2047617279": 7988,
  "207761727269": 7989,
  "204669736879": 7990,
  "204564646965": 7991,
  "536c6f77": 7992,
  "207374657468": 7993,
  "207365766572": 7994,
  "207368696e696572": 7995,
  "2070726f6261626c79": 7996,
  "206e657773706170657273": 7997,
  "207365766572616c": 7998,
  "206f6363": 7999,
  "526f636b": 8000,
  "4c656e61": 8001,
  "20656e636f756e74": 8002,
  "204d6567": 8003,
  "2073657276696e67": 8004,
  "2071756965746572": 8005,
  "20706c75636b6564": 8006,
  "20636f6e6e6563746564": 8007,
  "746f636b": 8008,
  "205368617265": 8009,
  "206f756368": 8010,
  "6967676572": 8011,
  "546564": 8012,
  "4164616d": 8013,
  "2067657374757265": 8014,
  "546f6f": 8015,
  "466c": 8016,
  "2073747564656e74": 8017,
  "20706c6f74": 8018,
  "20646f6f7262656c6c": 8019,
  "207371756177": 8020,
  "206361726573": 8021,
  "66697265": 8022,
  "207265736375696e67": 8023,
  "206772616e64736f6e": 8024,
  "205365": 8025,
  "20737079": 8026,
  "2073696d706c79": 8027,
  "20726f7773": 8028,
  "20676f6f": 8029,
  "69656c": 8030,
  "2077686973746c6573": 8031,
  "6d696573": 8032,
  "76616e74": 8033,
  "536872696e6b": 8034,
  "4d61676963": 8035,
  "20736e617073": 8036,
  "2073686f72746572": 8037,
  "20617374726f6e61757473": 8038,
  "73737373": 8039,
  "20756e7061636b696e67": 8040,
  "20636f7474616765": 8041,
  "2054696d65": 8042,
  "2073776f": 8043,
  "206163636964656e7473": 8044,
  "696269": 8045,
  "2073776f6c6c656e": 8046,
  "206d6f6f64": 8047,
  "204e7574": 8048,
  "5374657665": 8049,
  "6162656c6c65": 8050,
  "205a69707079": 8051,
  "204d6f757379": 8052,
  "616e6965": 8053,
  "5a617261": 8054,
  "20626f746865726564": 8055,
  "48616e6e6168": 8056,
  "2073746574686f73636f7065": 8057,
  "666f756e64": 8058,
  "207472757374696e67": 8059,
  "2063617573696e67": 8060,
  "4d6174": 8061,
  "4d6164": 8062,
  "206c65617074": 8063,
  "2064726573736572": 8064,
  "61696e74": 8065,
  "20736f75": 8066,
  "2070726f706572": 8067,
  "2070696c6c73": 8068,
  "7265747479": 8069,
  "207468726f7567686f7574": 8070,
  "4f6c697665": 8071,
  "2072756e6e6572": 8072,
  "2070726179657273": 8073,
  "2044696e61": 8074,
  "206a6f7966756c": 8075,
  "54686f6d6173": 8076,
  "6d61746573": 8077,
  "206c6f636b73": 8078,
  "205072696e6365": 8079,
  "4a616d6965": 8080,
  "20676f617473": 8081,
  "77686174": 8082,
  "20746172676574": 8083,
  "72657374": 8084,
  "2057616974": 8085,
  "204b6172656e": 8086,
  "206465617273": 8087,
  "2042616e67": 8088,
  "6172746c6564": 8089,
  "526564": 8090,
  "20776164646c6564": 8091,
  "206d756e6368": 8092,
  "20666c697073": 8093,
  "2043726f": 8094,
  "206c6f7765726564": 8095,
  "207374657070696e67": 8096,
  "20636f6e73": 8097,
  "204a61636b6965": 8098,
  "207465616368657273": 8099,
  "20636f77626f79": 8100,
  "20546f7973": 8101,
  "20696e63686573": 8102,
  "20656e76656c6f706573": 8103,
  "65617273": 8104,
  "2063686172": 8105,
  "2056726f6f6d": 8106,
  "206578706c6f726572": 8107,
  "20616e7469636970": 8108,
  "20706c617964": 8109,
  "205265616479": 8110,
  "2052756666": 8111,
  "2052616c7068": 8112,
  "756e697479": 8113,
  "4e696365": 8114,
  "46696e6e": 8115,
  "20426164": 8116,
  "656e696e67": 8117,
  "206b6e6f636b696e67": 8118,
  "20666c6f6f7273": 8119,
  "206566666f727473": 8120,
  "20506c": 8121,
  "20756e69666f726d73": 8122,
  "6c696564": 8123,
  "20547269": 8124,
  "206177617265": 8125,
  "20666f6f747072696e7473": 8126,
  "536f6d656f6e65": 8127,
  "206e6561726c79": 8128,
  "2046696f6e61": 8129,
  "6c6c6173": 8130,
  "2064697363": 8131,
  "20526961": 8132,
  "697669": 8133,
  "207768696d70": 8134,
  "2074726f74": 8135,
  "2073656e73": 8136,
  "20676c697474": 8137,
  "20617070726563696174696f6e": 8138,
  "6f6f7368": 8139,
  "206e65636b73": 8140,
  "20636f6c6c6170": 8141,
  "20636865636b73": 8142,
  "206c617074": 8143,
  "20657863657074": 8144,
  "20706c7567": 8145,
  "20636861726765": 8146,
  "204a61636b79": 8147,
  "20666c7574746572696e67": 8148,
  "20756d6272656c6c6173": 8149,
  "207374616d706564": 8150,
  "616379": 8151,
  "2073616e64636173746c6573": 8152,
  "204461766579": 8153,
  "2073746174756573": 8154,
  "20486f6e6579": 8155,
  "6f6d62": 8156,
  "697363756974": 8157,
  "61696c73": 8158,
  "486f707079": 8159,
  "20736872616e6b": 8160,
  "20416d656c6961": 8161,
  "72696c79": 8162,
  "20707269636b": 8163,
  "2066696e697368696e67": 8164,
  "2061646473": 8165,
  "726f6e73": 8166,
  "207374726f6c6c": 8167,
  "2068756e74657273": 8168,
  "20646f64676564": 8169,
  "2063686f636f6c61746573": 8170,
  "2070617373656e67657273": 8171,
  "206765726d73": 8172,
  "6f676572": 8173,
  "207772696767": 8174,
  "206170726f6e73": 8175,
  "206169736c65": 8176,
  "2073657473": 8177,
  "2e2722": 8178,
  "204765727279": 8179,
  "207765656473": 8180,
  "206e6f76656c73": 8181,
  "6f72646572": 8182,
  "2064656d616e64696e67": 8183,
  "2054616b696e67": 8184,
  "2073637261746368696e67": 8185,
  "206d656f7773": 8186,
  "69737361": 8187,
  "4472": 8188,
  "206e7572736573": 8189,
  "4c75636b79": 8190,
  "206d696e64696e67": 8191,
  "2064697363757373696e67": 8192,
  "757272656e646572": 8193,
  "206b696c6c6564": 8194,
  "206472697665776179": 8195,
  "2043617269": 8196,
  "206265636f6d6573": 8197,
  "20746f6f6c626f78": 8198,
  "206c6170746f70": 8199,
  "206861697264": 8200,
  "20456c697a": 8201,
  "20706f736974": 8202,
  "2061747461636b": 8203,
  "205361646965": 8204,
  "2044657370697465": 8205,
  "537065656479": 8206,
  "20476c": 8207,
  "736f6c": 8208,
  "207363616d7065726564": 8209,
  "20626f756e636573": 8210,
  "20737570706c696564": 8211,
  "20737072617973": 8212,
  "2064656564": 8213,
  "2074656d7074": 8214,
  "2073756767657374696f6e": 8215,
  "20667269656e647368697073": 8216,
  "206275726e73": 8217,
  "436f636f": 8218,
  "20736c617070696e67": 8219,
  "20636c6f73696e67": 8220,
  "41727272": 8221,
  "20696e7669746573": 8222,
  "2062656c6f6e67696e6773": 8223,
  "20616e74696369706174696f6e": 8224,
  "20737072696e67696e67": 8225,
  "20666f726d": 8226,
  "206572617365": 8227,
  "20636f74746f6e": 8228,
  "205374616e": 8229,
  "20747769737473": 8230,
  "2072617973": 8231,
  "20736e7567676c65": 8232,
  "20666f726769766573": 8233,
  "206d6f64656c73": 8234,
  "207368616c6c": 8235,
  "206d61737361676573": 8236,
  "2068756d6d696e67": 8237,
  "6f6e6e6965": 8238,
  "20726573706f6e646564": 8239,
  "206e6577666f756e64": 8240,
  "2067686f737473": 8241,
  "20657870656374696e67": 8242,
  "205368656c6c79": 8243,
  "2063686561746564": 8244,
  "446f6573": 8245,
  "20576f6f6c79": 8246,
  "47696769": 8247,
  "6f747465": 8248,
  "2074726176656c696e67": 8249,
  "204e65": 8250,
  "20636f6e64": 8251,
  "20626174746c65": 8252,
  "20616c74686f756768": 8253,
  "616c6c6f7765656e": 8254,
  "206d6f6d6d696573": 8255,
  "20696e7669746174696f6e73": 8256,
  "2063617272696573": 8257,
  "2061696d": 8258,
  "2072656672657368696e67": 8259,
  "2070726573656e746564": 8260,
  "20636f6e63": 8261,
  "68656c": 8262,
  "207477656e7479": 8263,
  "20726f776564": 8264,
  "2042756d7079": 8265,
  "6f7473": 8266,
  "207371756972": 8267,
  "726965": 8268,
  "61726c6f747465": 8269,
  "20666f786573": 8270,
  "20636f6f706572": 8271,
  "2066696e616c": 8272,
  "206475636b6c696e67": 8273,
  "2063616665": 8274,
  "2042696269": 8275,
  "506970": 8276,
  "206d617273686d616c6c6f7773": 8277,
  "20636c69636b6564": 8278,
  "205a6970706572": 8279,
  "6f6f72": 8280,
  "206a657473": 8281,
  "2064657369676e696e67": 8282,
  "20626561766572": 8283,
  "66697665": 8284,
  "204d756666696e": 8285,
  "2048616c6c6f7765656e": 8286,
  "206d756773": 8287,
  "2057686f65766572": 8288,
  "2064726f776e": 8289,
  "20416c74686f756768": 8290,
  "207472696379636c65": 8291,
  "207069636e696373": 8292,
  "206f70706f73": 8293,
  "20636f6e76696e": 8294,
  "2052757468": 8295,
  "2045786369746564": 8296,
  "69656e73": 8297,
  "20436c65": 8298,
  "706f": 8299,
  "2073636f6f7073": 8300,
  "20636f6e67726174756c": 8301,
  "20506f70": 8302,
  "204d6164646965": 8303,
  "5361646c79": 8304,
  "20e28094": 8305,
  "2074726176656c73": 8306,
  "20616c69656e73": 8307,
  "207465737473": 8308,
  "207175657374696f6e6564": 8309,
  "205370656564": 8310,
  "696e746564": 8311,
  "20737472697073": 8312,
  "206372616674": 8313,
  "4e656172": 8314,
  "61747479": 8315,
  "4d6f757365": 8316,
  "636f7665726564": 8317,
  "2064656665": 8318,
  "20466c7574746572": 8319,
  "204275626261": 8320,
  "697269": 8321,
  "4272": 8322,
  "20666967687473": 8323,
  "726f6b656e": 8324,
  "42616c6c": 8325,
  "206f70706f73697465": 8326,
  "204269676779": 8327,
  "486d6d": 8328,
  "46696e64": 8329,
  "456c6c79": 8330,
  "43686c6f65": 8331,
  "20496d": 8332,
  "20726f7574": 8333,
  "206772616e64666174686572": 8334,
  "20656e636f756e7465726564": 8335,
  "206166666f7264": 8336,
  "204e65766572": 8337,
  "206465636c": 8338,
  "696e6368": 8339,
  "2072616973696e67": 8340,
  "696d656e74": 8341,
  "20757073696465": 8342,
  "2056697669": 8343,
  "4d65616e7768696c65": 8344,
  "4a657373": 8345,
  "20666c6173686564": 8346,
  "2063616c6d6c79": 8347,
  "2052697461": 8348,
  "207961776e696e67": 8349,
  "2073696e63657265": 8350,
  "207265616c697a6573": 8351,
  "61747572646179": 8352,
  "5472757374": 8353,
  "43686f6f": 8354,
  "206372797374616c73": 8355,
  "206275646479": 8356,
  "2053616d616e746861": 8357,
  "2063757063616b6573": 8358,
  "206275636b6c6564": 8359,
  "62796573": 8360,
  "426f7468": 8361,
  "2077696e6e657273": 8362,
  "20646566696e": 8363,
  "7665727365": 8364,
  "726973": 8365,
  "272c": 8366,
  "20776561706f6e73": 8367,
  "20636177": 8368,
  "736861646f77": 8369,
  "4a6f7368": 8370,
  "207061636b61676573": 8371,
  "206368656174": 8372,
  "205361747572646179": 8373,
  "207361636b73": 8374,
  "206d6573736573": 8375,
  "20676f6f6462796573": 8376,
  "20636f616368": 8377,
  "20617474656d": 8378,
  "71756574": 8379,
  "20636f6e76657273": 8380,
  "20547275636b": 8381,
  "20466c6f": 8382,
  "76616c": 8383,
  "206472696674": 8384,
  "2063617073": 8385,
  "204d696e61": 8386,
  "20457661": 8387,
  "656d696573": 8388,
  "20656e656d696573": 8389,
  "61736861": 8390,
  "2079756d6d69657374": 8391,
  "207363727562": 8392,
  "207377616c6c6f77": 8393,
  "2072657475726e696e67": 8394,
  "7269616e": 8395,
  "2061646d69726174696f6e": 8396,
  "20536f667479": 8397,
  "204d6567616e": 8398,
  "53696e6365": 8399,
  "207370726f7574": 8400,
  "204c6f75697365": 8401,
  "20756e61626c65": 8402,
  "20506c6179696e67": 8403,
  "20416e6f74686572": 8404,
  "756767696e67": 8405,
  "6f6f6b73": 8406,
  "20736164646572": 8407,
  "20667265657a696e67": 8408,
  "20627269676874657374": 8409,
  "20626c657373": 8410,
  "205961776e": 8411,
  "20726573706f6e": 8412,
  "204d616e": 8413,
  "72657665727365": 8414,
  "20726573706f6e7365": 8415,
  "20636f7379": 8416,
  "204f68": 8417,
  "206469616d6f6e6473": 8418,
  "206272696465": 8419,
  "7374616c6b": 8420,
  "207265617070": 8421,
  "206f70706f7274": 8422,
  "20686f6e6b696e67": 8423,
  "2067617262616765": 8424,
  "2077686973706572696e67": 8425,
  "20737472657463686573": 8426,
  "2070726576656e746564": 8427,
  "65726b": 8428,
  "616e746173746963": 8429,
  "2077686f65766572": 8430,
  "206f6464": 8431,
  "20617766756c": 8432,
  "2047726179": 8433,
  "616c7468": 8434,
  "20776569676873": 8435,
  "206a6f75726e657973": 8436,
  "2061776f6b65": 8437,
  "42727272": 8438,
  "207472617073": 8439,
  "20737069636573": 8440,
  "20647261676f6e666c79": 8441,
  "6f6666": 8442,
  "20626f726e": 8443,
  "20726561737375726564": 8444,
  "20636c6970": 8445,
  "69766961": 8446,
  "207374616c6c": 8447,
  "206265616e7374616c6b": 8448,
  "20617267756d": 8449,
  "206578616d696e696e67": 8450,
  "20646566696e6974656c79": 8451,
  "20626565746c6573": 8452,
  "206175746f6d6f62696c6573": 8453,
  "204d61697379": 8454,
  "6d696e65": 8455,
  "696369": 8456,
  "486f70": 8457,
  "2076697369746f7273": 8458,
  "207374756666696e67": 8459,
  "20706c617964617465": 8460,
  "20776173686573": 8461,
  "636965": 8462,
  "62726f6b656e": 8463,
  "207769736572": 8464,
  "20637573746f6d6572": 8465,
  "75706572": 8466,
  "656d6d61": 8467,
  "52616368656c": 8468,
  "2074726176656c6c696e67": 8469,
  "20536f666961": 8470,
  "204a6f6c6c79": 8471,
  "20466c6f70": 8472,
  "6f7571756574": 8473,
  "20686169726472657373": 8474,
  "20626f7571756574": 8475,
  "204e75727365": 8476,
  "6f727365": 8477,
  "62626c65": 8478,
  "2c27": 8479,
  "2074756d626c6564": 8480,
  "206465636f726174696f6e": 8481,
  "2063616d7066697265": 8482,
  "20456c6c65": 8483,
  "20686f6e65737479": 8484,
  "20627564": 8485,
  "7679": 8486,
  "656265636361": 8487,
  "4f6e6c79": 8488,
  "20626f6d62": 8489,
  "2077656c636f6d696e67": 8490,
  "206f66666572696e67": 8491,
  "207765616c7468": 8492,
  "2074726f75626c6573": 8493,
  "206f63636173": 8494,
  "20696e6372656173696e67": 8495,
  "204f74": 8496,
  "204a6178": 8497,
  "2048656c6c6f": 8498,
  "206c6f7564657374": 8499,
  "20696e737069726564": 8500,
  "2074797065": 8501,
  "20706172746564": 8502,
  "2067726f616e": 8503,
  "20436869636b": 8504,
  "204e75747479": 8505,
  "69726163": 8506,
  "207768616c6573": 8507,
  "205468756e646572": 8508,
  "205269636b79": 8509,
  "796c": 8510,
  "206465636c61726564": 8511,
  "20636f72726563746c79": 8512,
  "796c6572": 8513,
  "6f6f6b79": 8514,
  "667573": 8515,
  "206265616b73": 8516,
  "20517561636b79": 8517,
  "617468616e": 8518,
  "20636c6561726564": 8519,
  "20636f77626f7973": 8520,
  "206e757a7a6c6564": 8521,
  "20446f747479": 8522,
  "207072697a6573": 8523,
  "2065786368": 8524,
  "46696e6e79": 8525,
  "207761726d6c79": 8526,
  "204d697373696c65": 8527,
  "2072657761726473": 8528,
  "206f6265796564": 8529,
  "20637573746f6d657273": 8530,
  "53686f756c64": 8531,
  "20736972656e73": 8532,
  "20636f6d666f7274696e67": 8533,
  "2046656c": 8534,
  "736861706564": 8535,
  "20636f6e6e656374": 8536,
  "20466c61707079": 8537,
  "6d61746368": 8538,
  "20746f776e73": 8539,
  "204d61676963": 8540,
  "2042696e676f": 8541,
  "656c69657665": 8542,
  "2072656c79": 8543,
  "205669636b79": 8544,
  "486f6e6579": 8545,
  "2074726967676572": 8546,
  "206f776e73": 8547,
  "20696e73697374696e67": 8548,
  "2066616e746173746963": 8549,
  "2062656e6473": 8550,
  "204665": 8551,
  "2073706f696c696e67": 8552,
  "206861697264726573736572": 8553,
  "2073757272656e6465726564": 8554,
  "20737570706f7274696e67": 8555,
  "20736861726573": 8556,
  "20706f736573": 8557,
  "207069706573": 8558,
  "20636c65616e73": 8559,
  "72656e6368": 8560,
  "53756e": 8561,
  "4f757473696465": 8562,
  "4a756c6965": 8563,
  "207772696e6b6c6564": 8564,
  "20436f6f6b": 8565,
  "2063686f70706564": 8566,
  "207265636f72646572": 8567,
  "206d6f6f6e73": 8568,
  "206265616d696e67": 8569,
  "756e6573": 8570,
  "656c6c6f77": 8571,
  "42657468": 8572,
  "207468616e6b696e67": 8573,
  "20736e6f7779": 8574,
  "20576f6c66": 8575,
  "20736375727279": 8576,
  "20657870657269656e": 8577,
  "20656e6a6f7961626c65": 8578,
  "20616374697665": 8579,
  "20636f72616c": 8580,
  "205069676779": 8581,
  "20656e7669726f6e": 8582,
  "20646f6c6c6172": 8583,
  "204b6576696e": 8584,
  "776f726d": 8585,
  "656c6f7065": 8586,
  "206c6f63": 8587,
  "4a65": 8588,
  "2073747265616d657273": 8589,
  "20427562": 8590,
  "7564676564": 8591,
  "205061747479": 8592,
  "204d6f74686572": 8593,
  "205a61636b": 8594,
  "696e676572": 8595,
  "53757a79": 8596,
  "206578616d70": 8597,
  "2073686f727473": 8598,
  "2073686f6f6564": 8599,
  "20656e7669726f6e6d656e74": 8600,
  "54726565": 8601,
  "20696c6c": 8602,
  "207363656e74": 8603,
  "2062727569736573": 8604,
  "7573746572": 8605,
[...]
